{
  "version": "1.0",
  "truncation": null,
  "padding": null,
  "added_tokens": [
    {
      "id": 0,
      "content": "<pad>",
      "single_word": false,
      "lstrip": false,
      "rstrip": false,
      "normalized": false,
      "special": true
    },
    {
      "id": 1,
      "content": "</s>",
      "single_word": false,
      "lstrip": false,
      "rstrip": false,
      "normalized": false,
      "special": true
    },
    {
      "id": 2,
      "content": "<s>",
      "single_word": false,
      "lstrip": false,
      "rstrip": false,
      "normalized": false,
      "special": true
    },
    {
      "id": 3,
      "content": "<unk>",
      "single_word": false,
      "lstrip": false,
      "rstrip": false,
      "normalized": false,
      "special": true
    },
    {
      "id": 256000,
      "content": "<extra_id_299>",
      "single_word": false,
      "lstrip": false,
      "rstrip": false,
      "normalized": false,
      "special": true
    },
    {
      "id": 256001,
      "content": "<extra_id_298>",
      "single_word": false,
      "lstrip": false,
      "rstrip": false,
      "normalized": false,
      "special": true
    },
    {
      "id": 256002,
      "content": "<extra_id_297>",
      "single_word": false,
      "lstrip": false,
      "rstrip": false,
      "normalized": false,
      "special": true
    },
    {
      "id": 256003,
      "content": "<extra_id_296>",
      "single_word": false,
      "lstrip": false,
      "rstrip": false,
      "normalized": false,
      "special": true
    },
    {
      "id": 256004,
      "content": "<extra_id_295>",
      "single_word": false,
      "lstrip": false,
      "rstrip": false,
      "normalized": false,
      "special": true
    },
    {
      "id": 256005,
      "content": "<extra_id_294>",
      "single_word": false,
      "lstrip": false,
      "rstrip": false,
      "normalized": false,
      "special": true
    },
    {
      "id": 256006,
      "content": "<extra_id_293>",
      "single_word": false,
      "lstrip": false,
      "rstrip": false,
      "normalized": false,
      "special": true
    },
    {
      "id": 256007,
      "content": "<extra_id_292>",
      "single_word": false,
      "lstrip": false,
      "rstrip": false,
      "normalized": false,
      "special": true
    },
    {
      "id": 256008,
      "content": "<extra_id_291>",
      "single_word": false,
      "lstrip": false,
      "rstrip": false,
      "normalized": false,
      "special": true
    },
    {
      "id": 256009,
      "content": "<extra_id_290>",
      "single_word": false,
      "lstrip": false,
      "rstrip": false,
      "normalized": false,
      "special": true
    },
    {
      "id": 256010,
      "content": "<extra_id_289>",
      "single_word": false,
      "lstrip": false,
      "rstrip": false,
      "normalized": false,
      "special": true
    },
    {
      "id": 256011,
      "content": "<extra_id_288>",
      "single_word": false,
      "lstrip": false,
      "rstrip": false,
      "normalized": false,
      "special": true
    },
    {
      "id": 256012,
      "content": "<extra_id_287>",
      "single_word": false,
      "lstrip": false,
      "rstrip": false,
      "normalized": false,
      "special": true
    },
    {
      "id": 256013,
      "content": "<extra_id_286>",
      "single_word": false,
      "lstrip": false,
      "rstrip": false,
      "normalized": false,
      "special": true
    },
    {
      "id": 256014,
      "content": "<extra_id_285>",
      "single_word": false,
      "lstrip": false,
      "rstrip": false,
      "normalized": false,
      "special": true
    },
    {
      "id": 256015,
      "content": "<extra_id_284>",
      "single_word": false,
      "lstrip": false,
      "rstrip": false,
      "normalized": false,
      "special": true
    },
    {
      "id": 256016,
      "content": "<extra_id_283>",
      "single_word": false,
      "lstrip": false,
      "rstrip": false,
      "normalized": false,
      "special": true
    },
    {
      "id": 256017,
      "content": "<extra_id_282>",
      "single_word": false,
      "lstrip": false,
      "rstrip": false,
      "normalized": false,
      "special": true
    },
    {
      "id": 256018,
      "content": "<extra_id_281>",
      "single_word": false,
      "lstrip": false,
      "rstrip": false,
      "normalized": false,
      "special": true
    },
    {
      "id": 256019,
      "content": "<extra_id_280>",
      "single_word": false,
      "lstrip": false,
      "rstrip": false,
      "normalized": false,
      "special": true
    },
    {
      "id": 256020,
      "content": "<extra_id_279>",
      "single_word": false,
      "lstrip": false,
      "rstrip": false,
      "normalized": false,
      "special": true
    },
    {
      "id": 256021,
      "content": "<extra_id_278>",
      "single_word": false,
      "lstrip": false,
      "rstrip": false,
      "normalized": false,
      "special": true
    },
    {
      "id": 256022,
      "content": "<extra_id_277>",
      "single_word": false,
      "lstrip": false,
      "rstrip": false,
      "normalized": false,
      "special": true
    },
    {
      "id": 256023,
      "content": "<extra_id_276>",
      "single_word": false,
      "lstrip": false,
      "rstrip": false,
      "normalized": false,
      "special": true
    },
    {
      "id": 256024,
      "content": "<extra_id_275>",
      "single_word": false,
      "lstrip": false,
      "rstrip": false,
      "normalized": false,
      "special": true
    },
    {
      "id": 256025,
      "content": "<extra_id_274>",
      "single_word": false,
      "lstrip": false,
      "rstrip": false,
      "normalized": false,
      "special": true
    },
    {
      "id": 256026,
      "content": "<extra_id_273>",
      "single_word": false,
      "lstrip": false,
      "rstrip": false,
      "normalized": false,
      "special": true
    },
    {
      "id": 256027,
      "content": "<extra_id_272>",
      "single_word": false,
      "lstrip": false,
      "rstrip": false,
      "normalized": false,
      "special": true
    },
    {
      "id": 256028,
      "content": "<extra_id_271>",
      "single_word": false,
      "lstrip": false,
      "rstrip": false,
      "normalized": false,
      "special": true
    },
    {
      "id": 256029,
      "content": "<extra_id_270>",
      "single_word": false,
      "lstrip": false,
      "rstrip": false,
      "normalized": false,
      "special": true
    },
    {
      "id": 256030,
      "content": "<extra_id_269>",
      "single_word": false,
      "lstrip": false,
      "rstrip": false,
      "normalized": false,
      "special": true
    },
    {
      "id": 256031,
      "content": "<extra_id_268>",
      "single_word": false,
      "lstrip": false,
      "rstrip": false,
      "normalized": false,
      "special": true
    },
    {
      "id": 256032,
      "content": "<extra_id_267>",
      "single_word": false,
      "lstrip": false,
      "rstrip": false,
      "normalized": false,
      "special": true
    },
    {
      "id": 256033,
      "content": "<extra_id_266>",
      "single_word": false,
      "lstrip": false,
      "rstrip": false,
      "normalized": false,
      "special": true
    },
    {
      "id": 256034,
      "content": "<extra_id_265>",
      "single_word": false,
      "lstrip": false,
      "rstrip": false,
      "normalized": false,
      "special": true
    },
    {
      "id": 256035,
      "content": "<extra_id_264>",
      "single_word": false,
      "lstrip": false,
      "rstrip": false,
      "normalized": false,
      "special": true
    },
    {
      "id": 256036,
      "content": "<extra_id_263>",
      "single_word": false,
      "lstrip": false,
      "rstrip": false,
      "normalized": false,
      "special": true
    },
    {
      "id": 256037,
      "content": "<extra_id_262>",
      "single_word": false,
      "lstrip": false,
      "rstrip": false,
      "normalized": false,
      "special": true
    },
    {
      "id": 256038,
      "content": "<extra_id_261>",
      "single_word": false,
      "lstrip": false,
      "rstrip": false,
      "normalized": false,
      "special": true
    },
    {
      "id": 256039,
      "content": "<extra_id_260>",
      "single_word": false,
      "lstrip": false,
      "rstrip": false,
      "normalized": false,
      "special": true
    },
    {
      "id": 256040,
      "content": "<extra_id_259>",
      "single_word": false,
      "lstrip": false,
      "rstrip": false,
      "normalized": false,
      "special": true
    },
    {
      "id": 256041,
      "content": "<extra_id_258>",
      "single_word": false,
      "lstrip": false,
      "rstrip": false,
      "normalized": false,
      "special": true
    },
    {
      "id": 256042,
      "content": "<extra_id_257>",
      "single_word": false,
      "lstrip": false,
      "rstrip": false,
      "normalized": false,
      "special": true
    },
    {
      "id": 256043,
      "content": "<extra_id_256>",
      "single_word": false,
      "lstrip": false,
      "rstrip": false,
      "normalized": false,
      "special": true
    },
    {
      "id": 256044,
      "content": "<extra_id_255>",
      "single_word": false,
      "lstrip": false,
      "rstrip": false,
      "normalized": false,
      "special": true
    },
    {
      "id": 256045,
      "content": "<extra_id_254>",
      "single_word": false,
      "lstrip": false,
      "rstrip": false,
      "normalized": false,
      "special": true
    },
    {
      "id": 256046,
      "content": "<extra_id_253>",
      "single_word": false,
      "lstrip": false,
      "rstrip": false,
      "normalized": false,
      "special": true
    },
    {
      "id": 256047,
      "content": "<extra_id_252>",
      "single_word": false,
      "lstrip": false,
      "rstrip": false,
      "normalized": false,
      "special": true
    },
    {
      "id": 256048,
      "content": "<extra_id_251>",
      "single_word": false,
      "lstrip": false,
      "rstrip": false,
      "normalized": false,
      "special": true
    },
    {
      "id": 256049,
      "content": "<extra_id_250>",
      "single_word": false,
      "lstrip": false,
      "rstrip": false,
      "normalized": false,
      "special": true
    },
    {
      "id": 256050,
      "content": "<extra_id_249>",
      "single_word": false,
      "lstrip": false,
      "rstrip": false,
      "normalized": false,
      "special": true
    },
    {
      "id": 256051,
      "content": "<extra_id_248>",
      "single_word": false,
      "lstrip": false,
      "rstrip": false,
      "normalized": false,
      "special": true
    },
    {
      "id": 256052,
      "content": "<extra_id_247>",
      "single_word": false,
      "lstrip": false,
      "rstrip": false,
      "normalized": false,
      "special": true
    },
    {
      "id": 256053,
      "content": "<extra_id_246>",
      "single_word": false,
      "lstrip": false,
      "rstrip": false,
      "normalized": false,
      "special": true
    },
    {
      "id": 256054,
      "content": "<extra_id_245>",
      "single_word": false,
      "lstrip": false,
      "rstrip": false,
      "normalized": false,
      "special": true
    },
    {
      "id": 256055,
      "content": "<extra_id_244>",
      "single_word": false,
      "lstrip": false,
      "rstrip": false,
      "normalized": false,
      "special": true
    },
    {
      "id": 256056,
      "content": "<extra_id_243>",
      "single_word": false,
      "lstrip": false,
      "rstrip": false,
      "normalized": false,
      "special": true
    },
    {
      "id": 256057,
      "content": "<extra_id_242>",
      "single_word": false,
      "lstrip": false,
      "rstrip": false,
      "normalized": false,
      "special": true
    },
    {
      "id": 256058,
      "content": "<extra_id_241>",
      "single_word": false,
      "lstrip": false,
      "rstrip": false,
      "normalized": false,
      "special": true
    },
    {
      "id": 256059,
      "content": "<extra_id_240>",
      "single_word": false,
      "lstrip": false,
      "rstrip": false,
      "normalized": false,
      "special": true
    },
    {
      "id": 256060,
      "content": "<extra_id_239>",
      "single_word": false,
      "lstrip": false,
      "rstrip": false,
      "normalized": false,
      "special": true
    },
    {
      "id": 256061,
      "content": "<extra_id_238>",
      "single_word": false,
      "lstrip": false,
      "rstrip": false,
      "normalized": false,
      "special": true
    },
    {
      "id": 256062,
      "content": "<extra_id_237>",
      "single_word": false,
      "lstrip": false,
      "rstrip": false,
      "normalized": false,
      "special": true
    },
    {
      "id": 256063,
      "content": "<extra_id_236>",
      "single_word": false,
      "lstrip": false,
      "rstrip": false,
      "normalized": false,
      "special": true
    },
    {
      "id": 256064,
      "content": "<extra_id_235>",
      "single_word": false,
      "lstrip": false,
      "rstrip": false,
      "normalized": false,
      "special": true
    },
    {
      "id": 256065,
      "content": "<extra_id_234>",
      "single_word": false,
      "lstrip": false,
      "rstrip": false,
      "normalized": false,
      "special": true
    },
    {
      "id": 256066,
      "content": "<extra_id_233>",
      "single_word": false,
      "lstrip": false,
      "rstrip": false,
      "normalized": false,
      "special": true
    },
    {
      "id": 256067,
      "content": "<extra_id_232>",
      "single_word": false,
      "lstrip": false,
      "rstrip": false,
      "normalized": false,
      "special": true
    },
    {
      "id": 256068,
      "content": "<extra_id_231>",
      "single_word": false,
      "lstrip": false,
      "rstrip": false,
      "normalized": false,
      "special": true
    },
    {
      "id": 256069,
      "content": "<extra_id_230>",
      "single_word": false,
      "lstrip": false,
      "rstrip": false,
      "normalized": false,
      "special": true
    },
    {
      "id": 256070,
      "content": "<extra_id_229>",
      "single_word": false,
      "lstrip": false,
      "rstrip": false,
      "normalized": false,
      "special": true
    },
    {
      "id": 256071,
      "content": "<extra_id_228>",
      "single_word": false,
      "lstrip": false,
      "rstrip": false,
      "normalized": false,
      "special": true
    },
    {
      "id": 256072,
      "content": "<extra_id_227>",
      "single_word": false,
      "lstrip": false,
      "rstrip": false,
      "normalized": false,
      "special": true
    },
    {
      "id": 256073,
      "content": "<extra_id_226>",
      "single_word": false,
      "lstrip": false,
      "rstrip": false,
      "normalized": false,
      "special": true
    },
    {
      "id": 256074,
      "content": "<extra_id_225>",
      "single_word": false,
      "lstrip": false,
      "rstrip": false,
      "normalized": false,
      "special": true
    },
    {
      "id": 256075,
      "content": "<extra_id_224>",
      "single_word": false,
      "lstrip": false,
      "rstrip": false,
      "normalized": false,
      "special": true
    },
    {
      "id": 256076,
      "content": "<extra_id_223>",
      "single_word": false,
      "lstrip": false,
      "rstrip": false,
      "normalized": false,
      "special": true
    },
    {
      "id": 256077,
      "content": "<extra_id_222>",
      "single_word": false,
      "lstrip": false,
      "rstrip": false,
      "normalized": false,
      "special": true
    },
    {
      "id": 256078,
      "content": "<extra_id_221>",
      "single_word": false,
      "lstrip": false,
      "rstrip": false,
      "normalized": false,
      "special": true
    },
    {
      "id": 256079,
      "content": "<extra_id_220>",
      "single_word": false,
      "lstrip": false,
      "rstrip": false,
      "normalized": false,
      "special": true
    },
    {
      "id": 256080,
      "content": "<extra_id_219>",
      "single_word": false,
      "lstrip": false,
      "rstrip": false,
      "normalized": false,
      "special": true
    },
    {
      "id": 256081,
      "content": "<extra_id_218>",
      "single_word": false,
      "lstrip": false,
      "rstrip": false,
      "normalized": false,
      "special": true
    },
    {
      "id": 256082,
      "content": "<extra_id_217>",
      "single_word": false,
      "lstrip": false,
      "rstrip": false,
      "normalized": false,
      "special": true
    },
    {
      "id": 256083,
      "content": "<extra_id_216>",
      "single_word": false,
      "lstrip": false,
      "rstrip": false,
      "normalized": false,
      "special": true
    },
    {
      "id": 256084,
      "content": "<extra_id_215>",
      "single_word": false,
      "lstrip": false,
      "rstrip": false,
      "normalized": false,
      "special": true
    },
    {
      "id": 256085,
      "content": "<extra_id_214>",
      "single_word": false,
      "lstrip": false,
      "rstrip": false,
      "normalized": false,
      "special": true
    },
    {
      "id": 256086,
      "content": "<extra_id_213>",
      "single_word": false,
      "lstrip": false,
      "rstrip": false,
      "normalized": false,
      "special": true
    },
    {
      "id": 256087,
      "content": "<extra_id_212>",
      "single_word": false,
      "lstrip": false,
      "rstrip": false,
      "normalized": false,
      "special": true
    },
    {
      "id": 256088,
      "content": "<extra_id_211>",
      "single_word": false,
      "lstrip": false,
      "rstrip": false,
      "normalized": false,
      "special": true
    },
    {
      "id": 256089,
      "content": "<extra_id_210>",
      "single_word": false,
      "lstrip": false,
      "rstrip": false,
      "normalized": false,
      "special": true
    },
    {
      "id": 256090,
      "content": "<extra_id_209>",
      "single_word": false,
      "lstrip": false,
      "rstrip": false,
      "normalized": false,
      "special": true
    },
    {
      "id": 256091,
      "content": "<extra_id_208>",
      "single_word": false,
      "lstrip": false,
      "rstrip": false,
      "normalized": false,
      "special": true
    },
    {
      "id": 256092,
      "content": "<extra_id_207>",
      "single_word": false,
      "lstrip": false,
      "rstrip": false,
      "normalized": false,
      "special": true
    },
    {
      "id": 256093,
      "content": "<extra_id_206>",
      "single_word": false,
      "lstrip": false,
      "rstrip": false,
      "normalized": false,
      "special": true
    },
    {
      "id": 256094,
      "content": "<extra_id_205>",
      "single_word": false,
      "lstrip": false,
      "rstrip": false,
      "normalized": false,
      "special": true
    },
    {
      "id": 256095,
      "content": "<extra_id_204>",
      "single_word": false,
      "lstrip": false,
      "rstrip": false,
      "normalized": false,
      "special": true
    },
    {
      "id": 256096,
      "content": "<extra_id_203>",
      "single_word": false,
      "lstrip": false,
      "rstrip": false,
      "normalized": false,
      "special": true
    },
    {
      "id": 256097,
      "content": "<extra_id_202>",
      "single_word": false,
      "lstrip": false,
      "rstrip": false,
      "normalized": false,
      "special": true
    },
    {
      "id": 256098,
      "content": "<extra_id_201>",
      "single_word": false,
      "lstrip": false,
      "rstrip": false,
      "normalized": false,
      "special": true
    },
    {
      "id": 256099,
      "content": "<extra_id_200>",
      "single_word": false,
      "lstrip": false,
      "rstrip": false,
      "normalized": false,
      "special": true
    },
    {
      "id": 256100,
      "content": "<extra_id_199>",
      "single_word": false,
      "lstrip": false,
      "rstrip": false,
      "normalized": false,
      "special": true
    },
    {
      "id": 256101,
      "content": "<extra_id_198>",
      "single_word": false,
      "lstrip": false,
      "rstrip": false,
      "normalized": false,
      "special": true
    },
    {
      "id": 256102,
      "content": "<extra_id_197>",
      "single_word": false,
      "lstrip": false,
      "rstrip": false,
      "normalized": false,
      "special": true
    },
    {
      "id": 256103,
      "content": "<extra_id_196>",
      "single_word": false,
      "lstrip": false,
      "rstrip": false,
      "normalized": false,
      "special": true
    },
    {
      "id": 256104,
      "content": "<extra_id_195>",
      "single_word": false,
      "lstrip": false,
      "rstrip": false,
      "normalized": false,
      "special": true
    },
    {
      "id": 256105,
      "content": "<extra_id_194>",
      "single_word": false,
      "lstrip": false,
      "rstrip": false,
      "normalized": false,
      "special": true
    },
    {
      "id": 256106,
      "content": "<extra_id_193>",
      "single_word": false,
      "lstrip": false,
      "rstrip": false,
      "normalized": false,
      "special": true
    },
    {
      "id": 256107,
      "content": "<extra_id_192>",
      "single_word": false,
      "lstrip": false,
      "rstrip": false,
      "normalized": false,
      "special": true
    },
    {
      "id": 256108,
      "content": "<extra_id_191>",
      "single_word": false,
      "lstrip": false,
      "rstrip": false,
      "normalized": false,
      "special": true
    },
    {
      "id": 256109,
      "content": "<extra_id_190>",
      "single_word": false,
      "lstrip": false,
      "rstrip": false,
      "normalized": false,
      "special": true
    },
    {
      "id": 256110,
      "content": "<extra_id_189>",
      "single_word": false,
      "lstrip": false,
      "rstrip": false,
      "normalized": false,
      "special": true
    },
    {
      "id": 256111,
      "content": "<extra_id_188>",
      "single_word": false,
      "lstrip": false,
      "rstrip": false,
      "normalized": false,
      "special": true
    },
    {
      "id": 256112,
      "content": "<extra_id_187>",
      "single_word": false,
      "lstrip": false,
      "rstrip": false,
      "normalized": false,
      "special": true
    },
    {
      "id": 256113,
      "content": "<extra_id_186>",
      "single_word": false,
      "lstrip": false,
      "rstrip": false,
      "normalized": false,
      "special": true
    },
    {
      "id": 256114,
      "content": "<extra_id_185>",
      "single_word": false,
      "lstrip": false,
      "rstrip": false,
      "normalized": false,
      "special": true
    },
    {
      "id": 256115,
      "content": "<extra_id_184>",
      "single_word": false,
      "lstrip": false,
      "rstrip": false,
      "normalized": false,
      "special": true
    },
    {
      "id": 256116,
      "content": "<extra_id_183>",
      "single_word": false,
      "lstrip": false,
      "rstrip": false,
      "normalized": false,
      "special": true
    },
    {
      "id": 256117,
      "content": "<extra_id_182>",
      "single_word": false,
      "lstrip": false,
      "rstrip": false,
      "normalized": false,
      "special": true
    },
    {
      "id": 256118,
      "content": "<extra_id_181>",
      "single_word": false,
      "lstrip": false,
      "rstrip": false,
      "normalized": false,
      "special": true
    },
    {
      "id": 256119,
      "content": "<extra_id_180>",
      "single_word": false,
      "lstrip": false,
      "rstrip": false,
      "normalized": false,
      "special": true
    },
    {
      "id": 256120,
      "content": "<extra_id_179>",
      "single_word": false,
      "lstrip": false,
      "rstrip": false,
      "normalized": false,
      "special": true
    },
    {
      "id": 256121,
      "content": "<extra_id_178>",
      "single_word": false,
      "lstrip": false,
      "rstrip": false,
      "normalized": false,
      "special": true
    },
    {
      "id": 256122,
      "content": "<extra_id_177>",
      "single_word": false,
      "lstrip": false,
      "rstrip": false,
      "normalized": false,
      "special": true
    },
    {
      "id": 256123,
      "content": "<extra_id_176>",
      "single_word": false,
      "lstrip": false,
      "rstrip": false,
      "normalized": false,
      "special": true
    },
    {
      "id": 256124,
      "content": "<extra_id_175>",
      "single_word": false,
      "lstrip": false,
      "rstrip": false,
      "normalized": false,
      "special": true
    },
    {
      "id": 256125,
      "content": "<extra_id_174>",
      "single_word": false,
      "lstrip": false,
      "rstrip": false,
      "normalized": false,
      "special": true
    },
    {
      "id": 256126,
      "content": "<extra_id_173>",
      "single_word": false,
      "lstrip": false,
      "rstrip": false,
      "normalized": false,
      "special": true
    },
    {
      "id": 256127,
      "content": "<extra_id_172>",
      "single_word": false,
      "lstrip": false,
      "rstrip": false,
      "normalized": false,
      "special": true
    },
    {
      "id": 256128,
      "content": "<extra_id_171>",
      "single_word": false,
      "lstrip": false,
      "rstrip": false,
      "normalized": false,
      "special": true
    },
    {
      "id": 256129,
      "content": "<extra_id_170>",
      "single_word": false,
      "lstrip": false,
      "rstrip": false,
      "normalized": false,
      "special": true
    },
    {
      "id": 256130,
      "content": "<extra_id_169>",
      "single_word": false,
      "lstrip": false,
      "rstrip": false,
      "normalized": false,
      "special": true
    },
    {
      "id": 256131,
      "content": "<extra_id_168>",
      "single_word": false,
      "lstrip": false,
      "rstrip": false,
      "normalized": false,
      "special": true
    },
    {
      "id": 256132,
      "content": "<extra_id_167>",
      "single_word": false,
      "lstrip": false,
      "rstrip": false,
      "normalized": false,
      "special": true
    },
    {
      "id": 256133,
      "content": "<extra_id_166>",
      "single_word": false,
      "lstrip": false,
      "rstrip": false,
      "normalized": false,
      "special": true
    },
    {
      "id": 256134,
      "content": "<extra_id_165>",
      "single_word": false,
      "lstrip": false,
      "rstrip": false,
      "normalized": false,
      "special": true
    },
    {
      "id": 256135,
      "content": "<extra_id_164>",
      "single_word": false,
      "lstrip": false,
      "rstrip": false,
      "normalized": false,
      "special": true
    },
    {
      "id": 256136,
      "content": "<extra_id_163>",
      "single_word": false,
      "lstrip": false,
      "rstrip": false,
      "normalized": false,
      "special": true
    },
    {
      "id": 256137,
      "content": "<extra_id_162>",
      "single_word": false,
      "lstrip": false,
      "rstrip": false,
      "normalized": false,
      "special": true
    },
    {
      "id": 256138,
      "content": "<extra_id_161>",
      "single_word": false,
      "lstrip": false,
      "rstrip": false,
      "normalized": false,
      "special": true
    },
    {
      "id": 256139,
      "content": "<extra_id_160>",
      "single_word": false,
      "lstrip": false,
      "rstrip": false,
      "normalized": false,
      "special": true
    },
    {
      "id": 256140,
      "content": "<extra_id_159>",
      "single_word": false,
      "lstrip": false,
      "rstrip": false,
      "normalized": false,
      "special": true
    },
    {
      "id": 256141,
      "content": "<extra_id_158>",
      "single_word": false,
      "lstrip": false,
      "rstrip": false,
      "normalized": false,
      "special": true
    },
    {
      "id": 256142,
      "content": "<extra_id_157>",
      "single_word": false,
      "lstrip": false,
      "rstrip": false,
      "normalized": false,
      "special": true
    },
    {
      "id": 256143,
      "content": "<extra_id_156>",
      "single_word": false,
      "lstrip": false,
      "rstrip": false,
      "normalized": false,
      "special": true
    },
    {
      "id": 256144,
      "content": "<extra_id_155>",
      "single_word": false,
      "lstrip": false,
      "rstrip": false,
      "normalized": false,
      "special": true
    },
    {
      "id": 256145,
      "content": "<extra_id_154>",
      "single_word": false,
      "lstrip": false,
      "rstrip": false,
      "normalized": false,
      "special": true
    },
    {
      "id": 256146,
      "content": "<extra_id_153>",
      "single_word": false,
      "lstrip": false,
      "rstrip": false,
      "normalized": false,
      "special": true
    },
    {
      "id": 256147,
      "content": "<extra_id_152>",
      "single_word": false,
      "lstrip": false,
      "rstrip": false,
      "normalized": false,
      "special": true
    },
    {
      "id": 256148,
      "content": "<extra_id_151>",
      "single_word": false,
      "lstrip": false,
      "rstrip": false,
      "normalized": false,
      "special": true
    },
    {
      "id": 256149,
      "content": "<extra_id_150>",
      "single_word": false,
      "lstrip": false,
      "rstrip": false,
      "normalized": false,
      "special": true
    },
    {
      "id": 256150,
      "content": "<extra_id_149>",
      "single_word": false,
      "lstrip": false,
      "rstrip": false,
      "normalized": false,
      "special": true
    },
    {
      "id": 256151,
      "content": "<extra_id_148>",
      "single_word": false,
      "lstrip": false,
      "rstrip": false,
      "normalized": false,
      "special": true
    },
    {
      "id": 256152,
      "content": "<extra_id_147>",
      "single_word": false,
      "lstrip": false,
      "rstrip": false,
      "normalized": false,
      "special": true
    },
    {
      "id": 256153,
      "content": "<extra_id_146>",
      "single_word": false,
      "lstrip": false,
      "rstrip": false,
      "normalized": false,
      "special": true
    },
    {
      "id": 256154,
      "content": "<extra_id_145>",
      "single_word": false,
      "lstrip": false,
      "rstrip": false,
      "normalized": false,
      "special": true
    },
    {
      "id": 256155,
      "content": "<extra_id_144>",
      "single_word": false,
      "lstrip": false,
      "rstrip": false,
      "normalized": false,
      "special": true
    },
    {
      "id": 256156,
      "content": "<extra_id_143>",
      "single_word": false,
      "lstrip": false,
      "rstrip": false,
      "normalized": false,
      "special": true
    },
    {
      "id": 256157,
      "content": "<extra_id_142>",
      "single_word": false,
      "lstrip": false,
      "rstrip": false,
      "normalized": false,
      "special": true
    },
    {
      "id": 256158,
      "content": "<extra_id_141>",
      "single_word": false,
      "lstrip": false,
      "rstrip": false,
      "normalized": false,
      "special": true
    },
    {
      "id": 256159,
      "content": "<extra_id_140>",
      "single_word": false,
      "lstrip": false,
      "rstrip": false,
      "normalized": false,
      "special": true
    },
    {
      "id": 256160,
      "content": "<extra_id_139>",
      "single_word": false,
      "lstrip": false,
      "rstrip": false,
      "normalized": false,
      "special": true
    },
    {
      "id": 256161,
      "content": "<extra_id_138>",
      "single_word": false,
      "lstrip": false,
      "rstrip": false,
      "normalized": false,
      "special": true
    },
    {
      "id": 256162,
      "content": "<extra_id_137>",
      "single_word": false,
      "lstrip": false,
      "rstrip": false,
      "normalized": false,
      "special": true
    },
    {
      "id": 256163,
      "content": "<extra_id_136>",
      "single_word": false,
      "lstrip": false,
      "rstrip": false,
      "normalized": false,
      "special": true
    },
    {
      "id": 256164,
      "content": "<extra_id_135>",
      "single_word": false,
      "lstrip": false,
      "rstrip": false,
      "normalized": false,
      "special": true
    },
    {
      "id": 256165,
      "content": "<extra_id_134>",
      "single_word": false,
      "lstrip": false,
      "rstrip": false,
      "normalized": false,
      "special": true
    },
    {
      "id": 256166,
      "content": "<extra_id_133>",
      "single_word": false,
      "lstrip": false,
      "rstrip": false,
      "normalized": false,
      "special": true
    },
    {
      "id": 256167,
      "content": "<extra_id_132>",
      "single_word": false,
      "lstrip": false,
      "rstrip": false,
      "normalized": false,
      "special": true
    },
    {
      "id": 256168,
      "content": "<extra_id_131>",
      "single_word": false,
      "lstrip": false,
      "rstrip": false,
      "normalized": false,
      "special": true
    },
    {
      "id": 256169,
      "content": "<extra_id_130>",
      "single_word": false,
      "lstrip": false,
      "rstrip": false,
      "normalized": false,
      "special": true
    },
    {
      "id": 256170,
      "content": "<extra_id_129>",
      "single_word": false,
      "lstrip": false,
      "rstrip": false,
      "normalized": false,
      "special": true
    },
    {
      "id": 256171,
      "content": "<extra_id_128>",
      "single_word": false,
      "lstrip": false,
      "rstrip": false,
      "normalized": false,
      "special": true
    },
    {
      "id": 256172,
      "content": "<extra_id_127>",
      "single_word": false,
      "lstrip": false,
      "rstrip": false,
      "normalized": false,
      "special": true
    },
    {
      "id": 256173,
      "content": "<extra_id_126>",
      "single_word": false,
      "lstrip": false,
      "rstrip": false,
      "normalized": false,
      "special": true
    },
    {
      "id": 256174,
      "content": "<extra_id_125>",
      "single_word": false,
      "lstrip": false,
      "rstrip": false,
      "normalized": false,
      "special": true
    },
    {
      "id": 256175,
      "content": "<extra_id_124>",
      "single_word": false,
      "lstrip": false,
      "rstrip": false,
      "normalized": false,
      "special": true
    },
    {
      "id": 256176,
      "content": "<extra_id_123>",
      "single_word": false,
      "lstrip": false,
      "rstrip": false,
      "normalized": false,
      "special": true
    },
    {
      "id": 256177,
      "content": "<extra_id_122>",
      "single_word": false,
      "lstrip": false,
      "rstrip": false,
      "normalized": false,
      "special": true
    },
    {
      "id": 256178,
      "content": "<extra_id_121>",
      "single_word": false,
      "lstrip": false,
      "rstrip": false,
      "normalized": false,
      "special": true
    },
    {
      "id": 256179,
      "content": "<extra_id_120>",
      "single_word": false,
      "lstrip": false,
      "rstrip": false,
      "normalized": false,
      "special": true
    },
    {
      "id": 256180,
      "content": "<extra_id_119>",
      "single_word": false,
      "lstrip": false,
      "rstrip": false,
      "normalized": false,
      "special": true
    },
    {
      "id": 256181,
      "content": "<extra_id_118>",
      "single_word": false,
      "lstrip": false,
      "rstrip": false,
      "normalized": false,
      "special": true
    },
    {
      "id": 256182,
      "content": "<extra_id_117>",
      "single_word": false,
      "lstrip": false,
      "rstrip": false,
      "normalized": false,
      "special": true
    },
    {
      "id": 256183,
      "content": "<extra_id_116>",
      "single_word": false,
      "lstrip": false,
      "rstrip": false,
      "normalized": false,
      "special": true
    },
    {
      "id": 256184,
      "content": "<extra_id_115>",
      "single_word": false,
      "lstrip": false,
      "rstrip": false,
      "normalized": false,
      "special": true
    },
    {
      "id": 256185,
      "content": "<extra_id_114>",
      "single_word": false,
      "lstrip": false,
      "rstrip": false,
      "normalized": false,
      "special": true
    },
    {
      "id": 256186,
      "content": "<extra_id_113>",
      "single_word": false,
      "lstrip": false,
      "rstrip": false,
      "normalized": false,
      "special": true
    },
    {
      "id": 256187,
      "content": "<extra_id_112>",
      "single_word": false,
      "lstrip": false,
      "rstrip": false,
      "normalized": false,
      "special": true
    },
    {
      "id": 256188,
      "content": "<extra_id_111>",
      "single_word": false,
      "lstrip": false,
      "rstrip": false,
      "normalized": false,
      "special": true
    },
    {
      "id": 256189,
      "content": "<extra_id_110>",
      "single_word": false,
      "lstrip": false,
      "rstrip": false,
      "normalized": false,
      "special": true
    },
    {
      "id": 256190,
      "content": "<extra_id_109>",
      "single_word": false,
      "lstrip": false,
      "rstrip": false,
      "normalized": false,
      "special": true
    },
    {
      "id": 256191,
      "content": "<extra_id_108>",
      "single_word": false,
      "lstrip": false,
      "rstrip": false,
      "normalized": false,
      "special": true
    },
    {
      "id": 256192,
      "content": "<extra_id_107>",
      "single_word": false,
      "lstrip": false,
      "rstrip": false,
      "normalized": false,
      "special": true
    },
    {
      "id": 256193,
      "content": "<extra_id_106>",
      "single_word": false,
      "lstrip": false,
      "rstrip": false,
      "normalized": false,
      "special": true
    },
    {
      "id": 256194,
      "content": "<extra_id_105>",
      "single_word": false,
      "lstrip": false,
      "rstrip": false,
      "normalized": false,
      "special": true
    },
    {
      "id": 256195,
      "content": "<extra_id_104>",
      "single_word": false,
      "lstrip": false,
      "rstrip": false,
      "normalized": false,
      "special": true
    },
    {
      "id": 256196,
      "content": "<extra_id_103>",
      "single_word": false,
      "lstrip": false,
      "rstrip": false,
      "normalized": false,
      "special": true
    },
    {
      "id": 256197,
      "content": "<extra_id_102>",
      "single_word": false,
      "lstrip": false,
      "rstrip": false,
      "normalized": false,
      "special": true
    },
    {
      "id": 256198,
      "content": "<extra_id_101>",
      "single_word": false,
      "lstrip": false,
      "rstrip": false,
      "normalized": false,
      "special": true
    },
    {
      "id": 256199,
      "content": "<extra_id_100>",
      "single_word": false,
      "lstrip": false,
      "rstrip": false,
      "normalized": false,
      "special": true
    },
    {
      "id": 256200,
      "content": "<extra_id_99>",
      "single_word": false,
      "lstrip": false,
      "rstrip": false,
      "normalized": false,
      "special": true
    },
    {
      "id": 256201,
      "content": "<extra_id_98>",
      "single_word": false,
      "lstrip": false,
      "rstrip": false,
      "normalized": false,
      "special": true
    },
    {
      "id": 256202,
      "content": "<extra_id_97>",
      "single_word": false,
      "lstrip": false,
      "rstrip": false,
      "normalized": false,
      "special": true
    },
    {
      "id": 256203,
      "content": "<extra_id_96>",
      "single_word": false,
      "lstrip": false,
      "rstrip": false,
      "normalized": false,
      "special": true
    },
    {
      "id": 256204,
      "content": "<extra_id_95>",
      "single_word": false,
      "lstrip": false,
      "rstrip": false,
      "normalized": false,
      "special": true
    },
    {
      "id": 256205,
      "content": "<extra_id_94>",
      "single_word": false,
      "lstrip": false,
      "rstrip": false,
      "normalized": false,
      "special": true
    },
    {
      "id": 256206,
      "content": "<extra_id_93>",
      "single_word": false,
      "lstrip": false,
      "rstrip": false,
      "normalized": false,
      "special": true
    },
    {
      "id": 256207,
      "content": "<extra_id_92>",
      "single_word": false,
      "lstrip": false,
      "rstrip": false,
      "normalized": false,
      "special": true
    },
    {
      "id": 256208,
      "content": "<extra_id_91>",
      "single_word": false,
      "lstrip": false,
      "rstrip": false,
      "normalized": false,
      "special": true
    },
    {
      "id": 256209,
      "content": "<extra_id_90>",
      "single_word": false,
      "lstrip": false,
      "rstrip": false,
      "normalized": false,
      "special": true
    },
    {
      "id": 256210,
      "content": "<extra_id_89>",
      "single_word": false,
      "lstrip": false,
      "rstrip": false,
      "normalized": false,
      "special": true
    },
    {
      "id": 256211,
      "content": "<extra_id_88>",
      "single_word": false,
      "lstrip": false,
      "rstrip": false,
      "normalized": false,
      "special": true
    },
    {
      "id": 256212,
      "content": "<extra_id_87>",
      "single_word": false,
      "lstrip": false,
      "rstrip": false,
      "normalized": false,
      "special": true
    },
    {
      "id": 256213,
      "content": "<extra_id_86>",
      "single_word": false,
      "lstrip": false,
      "rstrip": false,
      "normalized": false,
      "special": true
    },
    {
      "id": 256214,
      "content": "<extra_id_85>",
      "single_word": false,
      "lstrip": false,
      "rstrip": false,
      "normalized": false,
      "special": true
    },
    {
      "id": 256215,
      "content": "<extra_id_84>",
      "single_word": false,
      "lstrip": false,
      "rstrip": false,
      "normalized": false,
      "special": true
    },
    {
      "id": 256216,
      "content": "<extra_id_83>",
      "single_word": false,
      "lstrip": false,
      "rstrip": false,
      "normalized": false,
      "special": true
    },
    {
      "id": 256217,
      "content": "<extra_id_82>",
      "single_word": false,
      "lstrip": false,
      "rstrip": false,
      "normalized": false,
      "special": true
    },
    {
      "id": 256218,
      "content": "<extra_id_81>",
      "single_word": false,
      "lstrip": false,
      "rstrip": false,
      "normalized": false,
      "special": true
    },
    {
      "id": 256219,
      "content": "<extra_id_80>",
      "single_word": false,
      "lstrip": false,
      "rstrip": false,
      "normalized": false,
      "special": true
    },
    {
      "id": 256220,
      "content": "<extra_id_79>",
      "single_word": false,
      "lstrip": false,
      "rstrip": false,
      "normalized": false,
      "special": true
    },
    {
      "id": 256221,
      "content": "<extra_id_78>",
      "single_word": false,
      "lstrip": false,
      "rstrip": false,
      "normalized": false,
      "special": true
    },
    {
      "id": 256222,
      "content": "<extra_id_77>",
      "single_word": false,
      "lstrip": false,
      "rstrip": false,
      "normalized": false,
      "special": true
    },
    {
      "id": 256223,
      "content": "<extra_id_76>",
      "single_word": false,
      "lstrip": false,
      "rstrip": false,
      "normalized": false,
      "special": true
    },
    {
      "id": 256224,
      "content": "<extra_id_75>",
      "single_word": false,
      "lstrip": false,
      "rstrip": false,
      "normalized": false,
      "special": true
    },
    {
      "id": 256225,
      "content": "<extra_id_74>",
      "single_word": false,
      "lstrip": false,
      "rstrip": false,
      "normalized": false,
      "special": true
    },
    {
      "id": 256226,
      "content": "<extra_id_73>",
      "single_word": false,
      "lstrip": false,
      "rstrip": false,
      "normalized": false,
      "special": true
    },
    {
      "id": 256227,
      "content": "<extra_id_72>",
      "single_word": false,
      "lstrip": false,
      "rstrip": false,
      "normalized": false,
      "special": true
    },
    {
      "id": 256228,
      "content": "<extra_id_71>",
      "single_word": false,
      "lstrip": false,
      "rstrip": false,
      "normalized": false,
      "special": true
    },
    {
      "id": 256229,
      "content": "<extra_id_70>",
      "single_word": false,
      "lstrip": false,
      "rstrip": false,
      "normalized": false,
      "special": true
    },
    {
      "id": 256230,
      "content": "<extra_id_69>",
      "single_word": false,
      "lstrip": false,
      "rstrip": false,
      "normalized": false,
      "special": true
    },
    {
      "id": 256231,
      "content": "<extra_id_68>",
      "single_word": false,
      "lstrip": false,
      "rstrip": false,
      "normalized": false,
      "special": true
    },
    {
      "id": 256232,
      "content": "<extra_id_67>",
      "single_word": false,
      "lstrip": false,
      "rstrip": false,
      "normalized": false,
      "special": true
    },
    {
      "id": 256233,
      "content": "<extra_id_66>",
      "single_word": false,
      "lstrip": false,
      "rstrip": false,
      "normalized": false,
      "special": true
    },
    {
      "id": 256234,
      "content": "<extra_id_65>",
      "single_word": false,
      "lstrip": false,
      "rstrip": false,
      "normalized": false,
      "special": true
    },
    {
      "id": 256235,
      "content": "<extra_id_64>",
      "single_word": false,
      "lstrip": false,
      "rstrip": false,
      "normalized": false,
      "special": true
    },
    {
      "id": 256236,
      "content": "<extra_id_63>",
      "single_word": false,
      "lstrip": false,
      "rstrip": false,
      "normalized": false,
      "special": true
    },
    {
      "id": 256237,
      "content": "<extra_id_62>",
      "single_word": false,
      "lstrip": false,
      "rstrip": false,
      "normalized": false,
      "special": true
    },
    {
      "id": 256238,
      "content": "<extra_id_61>",
      "single_word": false,
      "lstrip": false,
      "rstrip": false,
      "normalized": false,
      "special": true
    },
    {
      "id": 256239,
      "content": "<extra_id_60>",
      "single_word": false,
      "lstrip": false,
      "rstrip": false,
      "normalized": false,
      "special": true
    },
    {
      "id": 256240,
      "content": "<extra_id_59>",
      "single_word": false,
      "lstrip": false,
      "rstrip": false,
      "normalized": false,
      "special": true
    },
    {
      "id": 256241,
      "content": "<extra_id_58>",
      "single_word": false,
      "lstrip": false,
      "rstrip": false,
      "normalized": false,
      "special": true
    },
    {
      "id": 256242,
      "content": "<extra_id_57>",
      "single_word": false,
      "lstrip": false,
      "rstrip": false,
      "normalized": false,
      "special": true
    },
    {
      "id": 256243,
      "content": "<extra_id_56>",
      "single_word": false,
      "lstrip": false,
      "rstrip": false,
      "normalized": false,
      "special": true
    },
    {
      "id": 256244,
      "content": "<extra_id_55>",
      "single_word": false,
      "lstrip": false,
      "rstrip": false,
      "normalized": false,
      "special": true
    },
    {
      "id": 256245,
      "content": "<extra_id_54>",
      "single_word": false,
      "lstrip": false,
      "rstrip": false,
      "normalized": false,
      "special": true
    },
    {
      "id": 256246,
      "content": "<extra_id_53>",
      "single_word": false,
      "lstrip": false,
      "rstrip": false,
      "normalized": false,
      "special": true
    },
    {
      "id": 256247,
      "content": "<extra_id_52>",
      "single_word": false,
      "lstrip": false,
      "rstrip": false,
      "normalized": false,
      "special": true
    },
    {
      "id": 256248,
      "content": "<extra_id_51>",
      "single_word": false,
      "lstrip": false,
      "rstrip": false,
      "normalized": false,
      "special": true
    },
    {
      "id": 256249,
      "content": "<extra_id_50>",
      "single_word": false,
      "lstrip": false,
      "rstrip": false,
      "normalized": false,
      "special": true
    },
    {
      "id": 256250,
      "content": "<extra_id_49>",
      "single_word": false,
      "lstrip": false,
      "rstrip": false,
      "normalized": false,
      "special": true
    },
    {
      "id": 256251,
      "content": "<extra_id_48>",
      "single_word": false,
      "lstrip": false,
      "rstrip": false,
      "normalized": false,
      "special": true
    },
    {
      "id": 256252,
      "content": "<extra_id_47>",
      "single_word": false,
      "lstrip": false,
      "rstrip": false,
      "normalized": false,
      "special": true
    },
    {
      "id": 256253,
      "content": "<extra_id_46>",
      "single_word": false,
      "lstrip": false,
      "rstrip": false,
      "normalized": false,
      "special": true
    },
    {
      "id": 256254,
      "content": "<extra_id_45>",
      "single_word": false,
      "lstrip": false,
      "rstrip": false,
      "normalized": false,
      "special": true
    },
    {
      "id": 256255,
      "content": "<extra_id_44>",
      "single_word": false,
      "lstrip": false,
      "rstrip": false,
      "normalized": false,
      "special": true
    },
    {
      "id": 256256,
      "content": "<extra_id_43>",
      "single_word": false,
      "lstrip": false,
      "rstrip": false,
      "normalized": false,
      "special": true
    },
    {
      "id": 256257,
      "content": "<extra_id_42>",
      "single_word": false,
      "lstrip": false,
      "rstrip": false,
      "normalized": false,
      "special": true
    },
    {
      "id": 256258,
      "content": "<extra_id_41>",
      "single_word": false,
      "lstrip": false,
      "rstrip": false,
      "normalized": false,
      "special": true
    },
    {
      "id": 256259,
      "content": "<extra_id_40>",
      "single_word": false,
      "lstrip": false,
      "rstrip": false,
      "normalized": false,
      "special": true
    },
    {
      "id": 256260,
      "content": "<extra_id_39>",
      "single_word": false,
      "lstrip": false,
      "rstrip": false,
      "normalized": false,
      "special": true
    },
    {
      "id": 256261,
      "content": "<extra_id_38>",
      "single_word": false,
      "lstrip": false,
      "rstrip": false,
      "normalized": false,
      "special": true
    },
    {
      "id": 256262,
      "content": "<extra_id_37>",
      "single_word": false,
      "lstrip": false,
      "rstrip": false,
      "normalized": false,
      "special": true
    },
    {
      "id": 256263,
      "content": "<extra_id_36>",
      "single_word": false,
      "lstrip": false,
      "rstrip": false,
      "normalized": false,
      "special": true
    },
    {
      "id": 256264,
      "content": "<extra_id_35>",
      "single_word": false,
      "lstrip": false,
      "rstrip": false,
      "normalized": false,
      "special": true
    },
    {
      "id": 256265,
      "content": "<extra_id_34>",
      "single_word": false,
      "lstrip": false,
      "rstrip": false,
      "normalized": false,
      "special": true
    },
    {
      "id": 256266,
      "content": "<extra_id_33>",
      "single_word": false,
      "lstrip": false,
      "rstrip": false,
      "normalized": false,
      "special": true
    },
    {
      "id": 256267,
      "content": "<extra_id_32>",
      "single_word": false,
      "lstrip": false,
      "rstrip": false,
      "normalized": false,
      "special": true
    },
    {
      "id": 256268,
      "content": "<extra_id_31>",
      "single_word": false,
      "lstrip": false,
      "rstrip": false,
      "normalized": false,
      "special": true
    },
    {
      "id": 256269,
      "content": "<extra_id_30>",
      "single_word": false,
      "lstrip": false,
      "rstrip": false,
      "normalized": false,
      "special": true
    },
    {
      "id": 256270,
      "content": "<extra_id_29>",
      "single_word": false,
      "lstrip": false,
      "rstrip": false,
      "normalized": false,
      "special": true
    },
    {
      "id": 256271,
      "content": "<extra_id_28>",
      "single_word": false,
      "lstrip": false,
      "rstrip": false,
      "normalized": false,
      "special": true
    },
    {
      "id": 256272,
      "content": "<extra_id_27>",
      "single_word": false,
      "lstrip": false,
      "rstrip": false,
      "normalized": false,
      "special": true
    },
    {
      "id": 256273,
      "content": "<extra_id_26>",
      "single_word": false,
      "lstrip": false,
      "rstrip": false,
      "normalized": false,
      "special": true
    },
    {
      "id": 256274,
      "content": "<extra_id_25>",
      "single_word": false,
      "lstrip": false,
      "rstrip": false,
      "normalized": false,
      "special": true
    },
    {
      "id": 256275,
      "content": "<extra_id_24>",
      "single_word": false,
      "lstrip": false,
      "rstrip": false,
      "normalized": false,
      "special": true
    },
    {
      "id": 256276,
      "content": "<extra_id_23>",
      "single_word": false,
      "lstrip": false,
      "rstrip": false,
      "normalized": false,
      "special": true
    },
    {
      "id": 256277,
      "content": "<extra_id_22>",
      "single_word": false,
      "lstrip": false,
      "rstrip": false,
      "normalized": false,
      "special": true
    },
    {
      "id": 256278,
      "content": "<extra_id_21>",
      "single_word": false,
      "lstrip": false,
      "rstrip": false,
      "normalized": false,
      "special": true
    },
    {
      "id": 256279,
      "content": "<extra_id_20>",
      "single_word": false,
      "lstrip": false,
      "rstrip": false,
      "normalized": false,
      "special": true
    },
    {
      "id": 256280,
      "content": "<extra_id_19>",
      "single_word": false,
      "lstrip": false,
      "rstrip": false,
      "normalized": false,
      "special": true
    },
    {
      "id": 256281,
      "content": "<extra_id_18>",
      "single_word": false,
      "lstrip": false,
      "rstrip": false,
      "normalized": false,
      "special": true
    },
    {
      "id": 256282,
      "content": "<extra_id_17>",
      "single_word": false,
      "lstrip": false,
      "rstrip": false,
      "normalized": false,
      "special": true
    },
    {
      "id": 256283,
      "content": "<extra_id_16>",
      "single_word": false,
      "lstrip": false,
      "rstrip": false,
      "normalized": false,
      "special": true
    },
    {
      "id": 256284,
      "content": "<extra_id_15>",
      "single_word": false,
      "lstrip": false,
      "rstrip": false,
      "normalized": false,
      "special": true
    },
    {
      "id": 256285,
      "content": "<extra_id_14>",
      "single_word": false,
      "lstrip": false,
      "rstrip": false,
      "normalized": false,
      "special": true
    },
    {
      "id": 256286,
      "content": "<extra_id_13>",
      "single_word": false,
      "lstrip": false,
      "rstrip": false,
      "normalized": false,
      "special": true
    },
    {
      "id": 256287,
      "content": "<extra_id_12>",
      "single_word": false,
      "lstrip": false,
      "rstrip": false,
      "normalized": false,
      "special": true
    },
    {
      "id": 256288,
      "content": "<extra_id_11>",
      "single_word": false,
      "lstrip": false,
      "rstrip": false,
      "normalized": false,
      "special": true
    },
    {
      "id": 256289,
      "content": "<extra_id_10>",
      "single_word": false,
      "lstrip": false,
      "rstrip": false,
      "normalized": false,
      "special": true
    },
    {
      "id": 256290,
      "content": "<extra_id_9>",
      "single_word": false,
      "lstrip": false,
      "rstrip": false,
      "normalized": false,
      "special": true
    },
    {
      "id": 256291,
      "content": "<extra_id_8>",
      "single_word": false,
      "lstrip": false,
      "rstrip": false,
      "normalized": false,
      "special": true
    },
    {
      "id": 256292,
      "content": "<extra_id_7>",
      "single_word": false,
      "lstrip": false,
      "rstrip": false,
      "normalized": false,
      "special": true
    },
    {
      "id": 256293,
      "content": "<extra_id_6>",
      "single_word": false,
      "lstrip": false,
      "rstrip": false,
      "normalized": false,
      "special": true
    },
    {
      "id": 256294,
      "content": "<extra_id_5>",
      "single_word": false,
      "lstrip": false,
      "rstrip": false,
      "normalized": false,
      "special": true
    },
    {
      "id": 256295,
      "content": "<extra_id_4>",
      "single_word": false,
      "lstrip": false,
      "rstrip": false,
      "normalized": false,
      "special": true
    },
    {
      "id": 256296,
      "content": "<extra_id_3>",
      "single_word": false,
      "lstrip": false,
      "rstrip": false,
      "normalized": false,
      "special": true
    },
    {
      "id": 256297,
      "content": "<extra_id_2>",
      "single_word": false,
      "lstrip": false,
      "rstrip": false,
      "normalized": false,
      "special": true
    },
    {
      "id": 256298,
      "content": "<extra_id_1>",
      "single_word": false,
      "lstrip": false,
      "rstrip": false,
      "normalized": false,
      "special": true
    },
    {
      "id": 256299,
      "content": "<extra_id_0>",
      "single_word": false,
      "lstrip": false,
      "rstrip": false,
      "normalized": false,
      "special": true
    }
  ],
  "normalizer": {
    "type": "Sequence",
    "normalizers": [
      {
        "type": "Replace",
        "pattern": {
          "Regex": " {2,}"
        },
        "content": " "
      }
    ]
  },
  "pre_tokenizer": {
    "type": "Metaspace",
    "replacement": "▁",
    "add_prefix_space": true
  },
  "post_processor": {
    "type": "TemplateProcessing",
    "single": [
      {
        "Sequence": {
          "id": "A",
          "type_id": 0
        }
      },
      {
        "SpecialToken": {
          "id": "</s>",
          "type_id": 0
        }
      }
    ],
    "pair": [
      {
        "Sequence": {
          "id": "A",
          "type_id": 0
        }
      },
      {
        "SpecialToken": {
          "id": "</s>",
          "type_id": 0
        }
      },
      {
        "Sequence": {
          "id": "B",
          "type_id": 0
        }
      },
      {
        "SpecialToken": {
          "id": "</s>",
          "type_id": 0
        }
      }
    ],
    "special_tokens": {
      "</s>": {
        "id": "</s>",
        "ids": [
          1
        ],
        "tokens": [
          "</s>"
        ]
      }
    }
  },
  "decoder": {
    "type": "Metaspace",
    "replacement": "▁",
    "add_prefix_space": true
  },
  "model": {
    "type": "Unigram",
    "unk_id": 3,
    "vocab": [
      [
        "<pad>",
        0.0
      ],
      [
        "</s>",
        0.0
      ],
      [
        "<s>",
        0.0
      ],
      [
        "<unk>",
        0.0
      ],
      [
        "[eod]",
        0.0
      ],
      [
        "[web]",
        0.0
      ],
      [
        "[wiki]",
        0.0
      ],
      [
        "[translate]",
        0.0
      ],
      [
        "[convo]",
        0.0
      ],
      [
        "[fc]",
        0.0
      ],
      [
        "[ffc]",
        0.0
      ],
      [
        "[code]",
        0.0
      ],
      [
        "[book]",
        0.0
      ],
      [
        "[c4]",
        0.0
      ],
      [
        "[news]",
        0.0
      ],
      [
        "[forum]",
        0.0
      ],
      [
        "[eot]",
        0.0
      ],
      [
        "<0x00>",
        0.0
      ],
      [
        "<0x01>",
        0.0
      ],
      [
        "<0x02>",
        0.0
      ],
      [
        "<0x03>",
        0.0
      ],
      [
        "<0x04>",
        0.0
      ],
      [
        "<0x05>",
        0.0
      ],
      [
        "<0x06>",
        0.0
      ],
      [
        "<0x07>",
        0.0
      ],
      [
        "<0x08>",
        0.0
      ],
      [
        "<0x09>",
        0.0
      ],
      [
        "<0x0A>",
        0.0
      ],
      [
        "<0x0B>",
        0.0
      ],
      [
        "<0x0C>",
        0.0
      ],
      [
        "<0x0D>",
        0.0
      ],
      [
        "<0x0E>",
        0.0
      ],
      [
        "<0x0F>",
        0.0
      ],
      [
        "<0x10>",
        0.0
      ],
      [
        "<0x11>",
        0.0
      ],
      [
        "<0x12>",
        0.0
      ],
      [
        "<0x13>",
        0.0
      ],
      [
        "<0x14>",
        0.0
      ],
      [
        "<0x15>",
        0.0
      ],
      [
        "<0x16>",
        0.0
      ],
      [
        "<0x17>",
        0.0
      ],
      [
        "<0x18>",
        0.0
      ],
      [
        "<0x19>",
        0.0
      ],
      [
        "<0x1A>",
        0.0
      ],
      [
        "<0x1B>",
        0.0
      ],
      [
        "<0x1C>",
        0.0
      ],
      [
        "<0x1D>",
        0.0
      ],
      [
        "<0x1E>",
        0.0
      ],
      [
        "<0x1F>",
        0.0
      ],
      [
        "<0x20>",
        0.0
      ],
      [
        "<0x21>",
        0.0
      ],
      [
        "<0x22>",
        0.0
      ],
      [
        "<0x23>",
        0.0
      ],
      [
        "<0x24>",
        0.0
      ],
      [
        "<0x25>",
        0.0
      ],
      [
        "<0x26>",
        0.0
      ],
      [
        "<0x27>",
        0.0
      ],
      [
        "<0x28>",
        0.0
      ],
      [
        "<0x29>",
        0.0
      ],
      [
        "<0x2A>",
        0.0
      ],
      [
        "<0x2B>",
        0.0
      ],
      [
        "<0x2C>",
        0.0
      ],
      [
        "<0x2D>",
        0.0
      ],
      [
        "<0x2E>",
        0.0
      ],
      [
        "<0x2F>",
        0.0
      ],
      [
        "<0x30>",
        0.0
      ],
      [
        "<0x31>",
        0.0
      ],
      [
        "<0x32>",
        0.0
      ],
      [
        "<0x33>",
        0.0
      ],
      [
        "<0x34>",
        0.0
      ],
      [
        "<0x35>",
        0.0
      ],
      [
        "<0x36>",
        0.0
      ],
      [
        "<0x37>",
        0.0
      ],
      [
        "<0x38>",
        0.0
      ],
      [
        "<0x39>",
        0.0
      ],
      [
        "<0x3A>",
        0.0
      ],
      [
        "<0x3B>",
        0.0
      ],
      [
        "<0x3C>",
        0.0
      ],
      [
        "<0x3D>",
        0.0
      ],
      [
        "<0x3E>",
        0.0
      ],
      [
        "<0x3F>",
        0.0
      ],
      [
        "<0x40>",
        0.0
      ],
      [
        "<0x41>",
        0.0
      ],
      [
        "<0x42>",
        0.0
      ],
      [
        "<0x43>",
        0.0
      ],
      [
        "<0x44>",
        0.0
      ],
      [
        "<0x45>",
        0.0
      ],
      [
        "<0x46>",
        0.0
      ],
      [
        "<0x47>",
        0.0
      ],
      [
        "<0x48>",
        0.0
      ],
      [
        "<0x49>",
        0.0
      ],
      [
        "<0x4A>",
        0.0
      ],
      [
        "<0x4B>",
        0.0
      ],
      [
        "<0x4C>",
        0.0
      ],
      [
        "<0x4D>",
        0.0
      ],
      [
        "<0x4E>",
        0.0
      ],
      [
        "<0x4F>",
        0.0
      ],
      [
        "<0x50>",
        0.0
      ],
      [
        "<0x51>",
        0.0
      ],
      [
        "<0x52>",
        0.0
      ],
      [
        "<0x53>",
        0.0
      ],
      [
        "<0x54>",
        0.0
      ],
      [
        "<0x55>",
        0.0
      ],
      [
        "<0x56>",
        0.0
      ],
      [
        "<0x57>",
        0.0
      ],
      [
        "<0x58>",
        0.0
      ],
      [
        "<0x59>",
        0.0
      ],
      [
        "<0x5A>",
        0.0
      ],
      [
        "<0x5B>",
        0.0
      ],
      [
        "<0x5C>",
        0.0
      ],
      [
        "<0x5D>",
        0.0
      ],
      [
        "<0x5E>",
        0.0
      ],
      [
        "<0x5F>",
        0.0
      ],
      [
        "<0x60>",
        0.0
      ],
      [
        "<0x61>",
        0.0
      ],
      [
        "<0x62>",
        0.0
      ],
      [
        "<0x63>",
        0.0
      ],
      [
        "<0x64>",
        0.0
      ],
      [
        "<0x65>",
        0.0
      ],
      [
        "<0x66>",
        0.0
      ],
      [
        "<0x67>",
        0.0
      ],
      [
        "<0x68>",
        0.0
      ],
      [
        "<0x69>",
        0.0
      ],
      [
        "<0x6A>",
        0.0
      ],
      [
        "<0x6B>",
        0.0
      ],
      [
        "<0x6C>",
        0.0
      ],
      [
        "<0x6D>",
        0.0
      ],
      [
        "<0x6E>",
        0.0
      ],
      [
        "<0x6F>",
        0.0
      ],
      [
        "<0x70>",
        0.0
      ],
      [
        "<0x71>",
        0.0
      ],
      [
        "<0x72>",
        0.0
      ],
      [
        "<0x73>",
        0.0
      ],
      [
        "<0x74>",
        0.0
      ],
      [
        "<0x75>",
        0.0
      ],
      [
        "<0x76>",
        0.0
      ],
      [
        "<0x77>",
        0.0
      ],
      [
        "<0x78>",
        0.0
      ],
      [
        "<0x79>",
        0.0
      ],
      [
        "<0x7A>",
        0.0
      ],
      [
        "<0x7B>",
        0.0
      ],
      [
        "<0x7C>",
        0.0
      ],
      [
        "<0x7D>",
        0.0
      ],
      [
        "<0x7E>",
        0.0
      ],
      [
        "<0x7F>",
        0.0
      ],
      [
        "<0x80>",
        0.0
      ],
      [
        "<0x81>",
        0.0
      ],
      [
        "<0x82>",
        0.0
      ],
      [
        "<0x83>",
        0.0
      ],
      [
        "<0x84>",
        0.0
      ],
      [
        "<0x85>",
        0.0
      ],
      [
        "<0x86>",
        0.0
      ],
      [
        "<0x87>",
        0.0
      ],
      [
        "<0x88>",
        0.0
      ],
      [
        "<0x89>",
        0.0
      ],
      [
        "<0x8A>",
        0.0
      ],
      [
        "<0x8B>",
        0.0
      ],
      [
        "<0x8C>",
        0.0
      ],
      [
        "<0x8D>",
        0.0
      ],
      [
        "<0x8E>",
        0.0
      ],
      [
        "<0x8F>",
        0.0
      ],
      [
        "<0x90>",
        0.0
      ],
      [
        "<0x91>",
        0.0
      ],
      [
        "<0x92>",
        0.0
      ],
      [
        "<0x93>",
        0.0
      ],
      [
        "<0x94>",
        0.0
      ],
      [
        "<0x95>",
        0.0
      ],
      [
        "<0x96>",
        0.0
      ],
      [
        "<0x97>",
        0.0
      ],
      [
        "<0x98>",
        0.0
      ],
      [
        "<0x99>",
        0.0
      ],
      [
        "<0x9A>",
        0.0
      ],
      [
        "<0x9B>",
        0.0
      ],
      [
        "<0x9C>",
        0.0
      ],
      [
        "<0x9D>",
        0.0
      ],
      [
        "<0x9E>",
        0.0
      ],
      [
        "<0x9F>",
        0.0
      ],
      [
        "<0xA0>",
        0.0
      ],
      [
        "<0xA1>",
        0.0
      ],
      [
        "<0xA2>",
        0.0
      ],
      [
        "<0xA3>",
        0.0
      ],
      [
        "<0xA4>",
        0.0
      ],
      [
        "<0xA5>",
        0.0
      ],
      [
        "<0xA6>",
        0.0
      ],
      [
        "<0xA7>",
        0.0
      ],
      [
        "<0xA8>",
        0.0
      ],
      [
        "<0xA9>",
        0.0
      ],
      [
        "<0xAA>",
        0.0
      ],
      [
        "<0xAB>",
        0.0
      ],
      [
        "<0xAC>",
        0.0
      ],
      [
        "<0xAD>",
        0.0
      ],
      [
        "<0xAE>",
        0.0
      ],
      [
        "<0xAF>",
        0.0
      ],
      [
        "<0xB0>",
        0.0
      ],
      [
        "<0xB1>",
        0.0
      ],
      [
        "<0xB2>",
        0.0
      ],
      [
        "<0xB3>",
        0.0
      ],
      [
        "<0xB4>",
        0.0
      ],
      [
        "<0xB5>",
        0.0
      ],
      [
        "<0xB6>",
        0.0
      ],
      [
        "<0xB7>",
        0.0
      ],
      [
        "<0xB8>",
        0.0
      ],
      [
        "<0xB9>",
        0.0
      ],
      [
        "<0xBA>",
        0.0
      ],
      [
        "<0xBB>",
        0.0
      ],
      [
        "<0xBC>",
        0.0
      ],
      [
        "<0xBD>",
        0.0
      ],
      [
        "<0xBE>",
        0.0
      ],
      [
        "<0xBF>",
        0.0
      ],
      [
        "<0xC0>",
        0.0
      ],
      [
        "<0xC1>",
        0.0
      ],
      [
        "<0xC2>",
        0.0
      ],
      [
        "<0xC3>",
        0.0
      ],
      [
        "<0xC4>",
        0.0
      ],
      [
        "<0xC5>",
        0.0
      ],
      [
        "<0xC6>",
        0.0
      ],
      [
        "<0xC7>",
        0.0
      ],
      [
        "<0xC8>",
        0.0
      ],
      [
        "<0xC9>",
        0.0
      ],
      [
        "<0xCA>",
        0.0
      ],
      [
        "<0xCB>",
        0.0
      ],
      [
        "<0xCC>",
        0.0
      ],
      [
        "<0xCD>",
        0.0
      ],
      [
        "<0xCE>",
        0.0
      ],
      [
        "<0xCF>",
        0.0
      ],
      [
        "<0xD0>",
        0.0
      ],
      [
        "<0xD1>",
        0.0
      ],
      [
        "<0xD2>",
        0.0
      ],
      [
        "<0xD3>",
        0.0
      ],
      [
        "<0xD4>",
        0.0
      ],
      [
        "<0xD5>",
        0.0
      ],
      [
        "<0xD6>",
        0.0
      ],
      [
        "<0xD7>",
        0.0
      ],
      [
        "<0xD8>",
        0.0
      ],
      [
        "<0xD9>",
        0.0
      ],
      [
        "<0xDA>",
        0.0
      ],
      [
        "<0xDB>",
        0.0
      ],
      [
        "<0xDC>",
        0.0
      ],
      [
        "<0xDD>",
        0.0
      ],
      [
        "<0xDE>",
        0.0
      ],
      [
        "<0xDF>",
        0.0
      ],
      [
        "<0xE0>",
        0.0
      ],
      [
        "<0xE1>",
        0.0
      ],
      [
        "<0xE2>",
        0.0
      ],
      [
        "<0xE3>",
        0.0
      ],
      [
        "<0xE4>",
        0.0
      ],
      [
        "<0xE5>",
        0.0
      ],
      [
        "<0xE6>",
        0.0
      ],
      [
        "<0xE7>",
        0.0
      ],
      [
        "<0xE8>",
        0.0
      ],
      [
        "<0xE9>",
        0.0
      ],
      [
        "<0xEA>",
        0.0
      ],
      [
        "<0xEB>",
        0.0
      ],
      [
        "<0xEC>",
        0.0
      ],
      [
        "<0xED>",
        0.0
      ],
      [
        "<0xEE>",
        0.0
      ],
      [
        "<0xEF>",
        0.0
      ],
      [
        "<0xF0>",
        0.0
      ],
      [
        "<0xF1>",
        0.0
      ],
      [
        "<0xF2>",
        0.0
      ],
      [
        "<0xF3>",
        0.0
      ],
      [
        "<0xF4>",
        0.0
      ],
      [
        "<0xF5>",
        0.0
      ],
      [
        "<0xF6>",
        0.0
      ],
      [
        "<0xF7>",
        0.0
      ],
      [
        "<0xF8>",
        0.0
      ],
      [
        "<0xF9>",
        0.0
      ],
      [
        "<0xFA>",
        0.0
      ],
      [
        "<0xFB>",
        0.0
      ],
      [
        "<0xFC>",
        0.0
      ],
      [
        "<0xFD>",
        0.0
      ],
      [
        "<0xFE>",
        0.0
      ],
      [
        "<0xFF>",
        0.0
      ],
      [
        "▁",
        -3.1967949867248535
      ],
      [
        ".",
        -3.572343111038208
      ],
      [
        ",",
        -3.6019368171691895
      ],
      [
        "0",
        -4.073480129241943
      ],
      [
        "1",
        -4.1812896728515625
      ],
      [
        "2",
        -4.32684326171875
      ],
      [
        "▁de",
        -4.928261756896973
      ],
      [
        "-",
        -4.945675373077393
      ],
      [
        "s",
        -5.039949417114258
      ],
      [
        "3",
        -5.047764301300049
      ],
      [
        ":",
        -5.0969414710998535
      ],
      [
        "5",
        -5.105746746063232
      ],
      [
        "4",
        -5.2126288414001465
      ],
      [
        "9",
        -5.3070220947265625
      ],
      [
        "6",
        -5.390516757965088
      ],
      [
        "8",
        -5.390521049499512
      ],
      [
        "▁a",
        -5.395727634429932
      ],
      [
        "7",
        -5.44362735748291
      ],
      [
        "a",
        -5.485126972198486
      ],
      [
        "e",
        -5.574604034423828
      ],
      [
        "▁(",
        -5.716452598571777
      ],
      [
        ")",
        -5.7683868408203125
      ],
      [
        "/",
        -5.852194786071777
      ],
      [
        "i",
        -5.9172468185424805
      ],
      [
        "▁-",
        -5.966142177581787
      ],
      [
        "▁la",
        -6.065445899963379
      ],
      [
        "▁en",
        -6.069638729095459
      ],
      [
        "t",
        -6.148074150085449
      ],
      [
        "▁in",
        -6.158637523651123
      ],
      [
        "、",
        -6.2350921630859375
      ],
      [
        "▁i",
        -6.239243030548096
      ],
      [
        "o",
        -6.331741809844971
      ],
      [
        "en",
        -6.407315254211426
      ],
      [
        "'",
        -6.420174598693848
      ],
      [
        "n",
        -6.4392499923706055
      ],
      [
        "’",
        -6.469908714294434
      ],
      [
        "u",
        -6.5429606437683105
      ],
      [
        "。",
        -6.548983573913574
      ],
      [
        "▁e",
        -6.559040546417236
      ],
      [
        "▁the",
        -6.602303981781006
      ],
      [
        "y",
        -6.603437423706055
      ],
      [
        "▁que",
        -6.631565093994141
      ],
      [
        "▁to",
        -6.647292137145996
      ],
      [
        "▁o",
        -6.6635847091674805
      ],
      [
        "▁na",
        -6.703841686248779
      ],
      [
        "?",
        -6.736620903015137
      ],
      [
        "m",
        -6.741796016693115
      ],
      [
        "▁A",
        -6.763714790344238
      ],
      [
        "▁se",
        -6.769048690795898
      ],
      [
        "▁di",
        -6.83123779296875
      ],
      [
        "▁–",
        -6.842625617980957
      ],
      [
        "▁و",
        -6.847280502319336
      ],
      [
        "▁un",
        -6.860924243927002
      ],
      [
        "er",
        -6.867903232574463
      ],
      [
        "▁в",
        -6.871345043182373
      ],
      [
        "▁на",
        -6.896456718444824
      ],
      [
        "▁of",
        -6.94167947769165
      ],
      [
        "▁do",
        -6.954870223999023
      ],
      [
        "r",
        -6.965182781219482
      ],
      [
        "!",
        -6.990662097930908
      ],
      [
        "▁and",
        -6.996023178100586
      ],
      [
        "▁и",
        -7.026822566986084
      ],
      [
        "▁\"",
        -7.038403034210205
      ],
      [
        "▁|",
        -7.05238151550293
      ],
      [
        "،",
        -7.0649733543396
      ],
      [
        ";",
        -7.100584983825684
      ],
      [
        "▁is",
        -7.123212814331055
      ],
      [
        "▁el",
        -7.143007278442383
      ],
      [
        "▁for",
        -7.147924423217773
      ],
      [
        "▁l",
        -7.161439418792725
      ],
      [
        "の",
        -7.182884693145752
      ],
      [
        "▁og",
        -7.191051006317139
      ],
      [
        "▁y",
        -7.208544254302979
      ],
      [
        "▁le",
        -7.209132194519043
      ],
      [
        "\"",
        -7.212893486022949
      ],
      [
        "▁S",
        -7.222005844116211
      ],
      [
        "▁et",
        -7.229694843292236
      ],
      [
        "▁da",
        -7.236202239990234
      ],
      [
        "а",
        -7.259442806243896
      ],
      [
        "...",
        -7.275057315826416
      ],
      [
        "▁v",
        -7.278101444244385
      ],
      [
        "es",
        -7.282763004302979
      ],
      [
        "d",
        -7.285053730010986
      ],
      [
        "，",
        -7.287032127380371
      ],
      [
        "▁z",
        -7.289572238922119
      ],
      [
        "%",
        -7.297228813171387
      ],
      [
        "_",
        -7.29951810836792
      ],
      [
        "▁je",
        -7.306836605072021
      ],
      [
        "▁er",
        -7.325960159301758
      ],
      [
        "▁van",
        -7.330968856811523
      ],
      [
        "▁w",
        -7.335256576538086
      ],
      [
        "▁du",
        -7.349677085876465
      ],
      [
        "▁d",
        -7.355536460876465
      ],
      [
        "▁die",
        -7.369663238525391
      ],
      [
        "▁at",
        -7.384040832519531
      ],
      [
        "▁I",
        -7.389748096466064
      ],
      [
        "▁on",
        -7.395869255065918
      ],
      [
        "▁på",
        -7.399710178375244
      ],
      [
        "▁der",
        -7.402379035949707
      ],
      [
        "(",
        -7.402825355529785
      ],
      [
        "и",
        -7.4091596603393555
      ],
      [
        "▁si",
        -7.41593074798584
      ],
      [
        "▁“",
        -7.430671691894531
      ],
      [
        "▁para",
        -7.430898189544678
      ],
      [
        "▁del",
        -7.441424369812012
      ],
      [
        "”",
        -7.452791690826416
      ],
      [
        "▁con",
        -7.469654083251953
      ],
      [
        "k",
        -7.478466510772705
      ],
      [
        "▁und",
        -7.492227554321289
      ],
      [
        "▁s",
        -7.507830619812012
      ],
      [
        "е",
        -7.515752792358398
      ],
      [
        "▁ve",
        -7.538180351257324
      ],
      [
        "▁à",
        -7.541615962982178
      ],
      [
        "▁som",
        -7.545114994049072
      ],
      [
        "de",
        -7.548574447631836
      ],
      [
        "▁med",
        -7.553107738494873
      ],
      [
        "te",
        -7.591504573822021
      ],
      [
        "▁per",
        -7.595454692840576
      ],
      [
        "in",
        -7.604217529296875
      ],
      [
        "▁C",
        -7.620673656463623
      ],
      [
        "▁De",
        -7.622836589813232
      ],
      [
        "▁#",
        -7.629367828369141
      ],
      [
        "▁no",
        -7.631470680236816
      ],
      [
        "▁در",
        -7.64722728729248
      ],
      [
        "▁och",
        -7.650392055511475
      ],
      [
        "を",
        -7.659283638000488
      ],
      [
        "は",
        -7.66525936126709
      ],
      [
        "▁det",
        -7.670702457427979
      ],
      [
        "▁een",
        -7.674144744873047
      ],
      [
        "▁في",
        -7.679136276245117
      ],
      [
        "▁den",
        -7.683178424835205
      ],
      [
        "▁des",
        -7.68604564666748
      ],
      [
        "l",
        -7.686613082885742
      ],
      [
        "▁«",
        -7.686814308166504
      ],
      [
        "у",
        -7.705322742462158
      ],
      [
        "▁за",
        -7.713431358337402
      ],
      [
        "が",
        -7.716616630554199
      ],
      [
        "re",
        -7.7216572761535645
      ],
      [
        "▁с",
        -7.727520942687988
      ],
      [
        "▁al",
        -7.727662563323975
      ],
      [
        "▁het",
        -7.732833385467529
      ],
      [
        "▁av",
        -7.7370147705078125
      ],
      [
        "▁M",
        -7.747964859008789
      ],
      [
        "▁не",
        -7.752432346343994
      ],
      [
        "▁les",
        -7.753834247589111
      ],
      [
        "▁B",
        -7.758458614349365
      ],
      [
        "▁il",
        -7.759754657745361
      ],
      [
        "com",
        -7.769590377807617
      ],
      [
        "▁P",
        -7.7762451171875
      ],
      [
        "▁til",
        -7.779114723205566
      ],
      [
        "]",
        -7.779703140258789
      ],
      [
        "▁ja",
        -7.780795097351074
      ],
      [
        "c",
        -7.786008358001709
      ],
      [
        "▁om",
        -7.793465614318848
      ],
      [
        "▁T",
        -7.794557094573975
      ],
      [
        "▁من",
        -7.7958903312683105
      ],
      [
        "▁sa",
        -7.800125598907471
      ],
      [
        "▁te",
        -7.800209999084473
      ],
      [
        "的",
        -7.805977821350098
      ],
      [
        "le",
        -7.806847095489502
      ],
      [
        "▁/",
        -7.807013034820557
      ],
      [
        "et",
        -7.824754238128662
      ],
      [
        "に",
        -7.828094959259033
      ],
      [
        "S",
        -7.8308916091918945
      ],
      [
        "an",
        -7.839542388916016
      ],
      [
        "A",
        -7.840007781982422
      ],
      [
        "ing",
        -7.841813564300537
      ],
      [
        "▁E",
        -7.844873905181885
      ],
      [
        "ne",
        -7.845370769500732
      ],
      [
        "h",
        -7.850176811218262
      ],
      [
        "▁K",
        -7.853350162506104
      ],
      [
        "na",
        -7.856558799743652
      ],
      [
        "▁به",
        -7.865437984466553
      ],
      [
        "da",
        -7.868447303771973
      ],
      [
        "▁O",
        -7.876194953918457
      ],
      [
        "▁în",
        -7.879659175872803
      ],
      [
        "▁por",
        -7.87986946105957
      ],
      [
        "em",
        -7.882838726043701
      ],
      [
        "・",
        -7.888018131256104
      ],
      [
        "▁una",
        -7.889300346374512
      ],
      [
        "▁ال",
        -7.91257905960083
      ],
      [
        "▁V",
        -7.916958332061768
      ],
      [
        "▁har",
        -7.918292045593262
      ],
      [
        "▁по",
        -7.921606540679932
      ],
      [
        "▁att",
        -7.924355506896973
      ],
      [
        ").",
        -7.927260398864746
      ],
      [
        "ی",
        -7.927762508392334
      ],
      [
        "▁L",
        -7.928514957427979
      ],
      [
        "as",
        -7.937695503234863
      ],
      [
        "▁La",
        -7.950375556945801
      ],
      [
        "p",
        -7.950743198394775
      ],
      [
        "x",
        -7.952363967895508
      ],
      [
        "é",
        -7.952706813812256
      ],
      [
        "ta",
        -7.954247951507568
      ],
      [
        "▁kan",
        -7.970324993133545
      ],
      [
        "▁op",
        -7.973299980163574
      ],
      [
        "�",
        -7.976843357086182
      ],
      [
        "▁và",
        -7.97707986831665
      ],
      [
        "ul",
        -7.979423999786377
      ],
      [
        "▁es",
        -7.983031272888184
      ],
      [
        "▁cu",
        -7.9848432540893555
      ],
      [
        "▁ne",
        -7.984904289245605
      ],
      [
        "z",
        -7.98634672164917
      ],
      [
        "▁za",
        -7.990901947021484
      ],
      [
        "),",
        -7.99536657333374
      ],
      [
        "で",
        -7.997828960418701
      ],
      [
        "▁em",
        -8.008160591125488
      ],
      [
        "▁be",
        -8.010950088500977
      ],
      [
        "os",
        -8.011332511901855
      ],
      [
        "▁los",
        -8.015238761901855
      ],
      [
        "▁D",
        -8.02089786529541
      ],
      [
        "▁از",
        -8.03516960144043
      ],
      [
        "b",
        -8.039341926574707
      ],
      [
        "▁có",
        -8.046794891357422
      ],
      [
        "ar",
        -8.055668830871582
      ],
      [
        "C",
        -8.064531326293945
      ],
      [
        "://",
        -8.066998481750488
      ],
      [
        "▁che",
        -8.069523811340332
      ],
      [
        "▁của",
        -8.072174072265625
      ],
      [
        "▁[",
        -8.073341369628906
      ],
      [
        "»",
        -8.08795166015625
      ],
      [
        "…",
        -8.089380264282227
      ],
      [
        "D",
        -8.093859672546387
      ],
      [
        "ă",
        -8.097335815429688
      ],
      [
        "▁у",
        -8.10912036895752
      ],
      [
        "g",
        -8.109635353088379
      ],
      [
        "▁po",
        -8.112452507019043
      ],
      [
        "▁by",
        -8.112760543823242
      ],
      [
        "▁an",
        -8.11276912689209
      ],
      [
        "▁su",
        -8.123416900634766
      ],
      [
        "▁και",
        -8.124208450317383
      ],
      [
        "ه",
        -8.146154403686523
      ],
      [
        "ed",
        -8.146414756774902
      ],
      [
        "▁din",
        -8.151249885559082
      ],
      [
        "▁là",
        -8.15841007232666
      ],
      [
        "▁az",
        -8.163636207580566
      ],
      [
        "▁bir",
        -8.16836929321289
      ],
      [
        "ch",
        -8.172564506530762
      ],
      [
        "▁:",
        -8.173297882080078
      ],
      [
        "▁„",
        -8.175027847290039
      ],
      [
        "▁R",
        -8.175106048583984
      ],
      [
        "（",
        -8.176759719848633
      ],
      [
        "­",
        -8.180728912353516
      ],
      [
        "▁af",
        -8.180861473083496
      ],
      [
        "▁The",
        -8.184563636779785
      ],
      [
        "on",
        -8.187935829162598
      ],
      [
        "▁от",
        -8.189274787902832
      ],
      [
        "|",
        -8.195995330810547
      ],
      [
        "▁és",
        -8.19898509979248
      ],
      [
        "）",
        -8.203034400939941
      ],
      [
        "я",
        -8.203113555908203
      ],
      [
        "▁m",
        -8.204764366149902
      ],
      [
        "▁ha",
        -8.20863151550293
      ],
      [
        "se",
        -8.211809158325195
      ],
      [
        "▁pe",
        -8.2201509475708
      ],
      [
        "la",
        -8.223247528076172
      ],
      [
        "▁as",
        -8.229256629943848
      ],
      [
        "▁G",
        -8.230085372924805
      ],
      [
        "li",
        -8.235711097717285
      ],
      [
        "▁um",
        -8.238569259643555
      ],
      [
        "　",
        -8.240321159362793
      ],
      [
        "▁you",
        -8.249555587768555
      ],
      [
        "▁In",
        -8.259818077087402
      ],
      [
        "і",
        -8.261839866638184
      ],
      [
        "▁się",
        -8.270930290222168
      ],
      [
        "▁...",
        -8.271318435668945
      ],
      [
        "▁nu",
        -8.273178100585938
      ],
      [
        "ni",
        -8.274737358093262
      ],
      [
        "▁är",
        -8.275708198547363
      ],
      [
        "▁N",
        -8.281691551208496
      ],
      [
        "▁with",
        -8.284172058105469
      ],
      [
        "।",
        -8.285221099853516
      ],
      [
        "と",
        -8.287250518798828
      ],
      [
        "▁k",
        -8.291169166564941
      ],
      [
        "▁com",
        -8.291397094726562
      ],
      [
        "м",
        -8.292159080505371
      ],
      [
        "▁да",
        -8.295622825622559
      ],
      [
        "▁u",
        -8.295625686645508
      ],
      [
        "B",
        -8.299901962280273
      ],
      [
        "=",
        -8.30484676361084
      ],
      [
        "▁för",
        -8.309256553649902
      ],
      [
        "▁F",
        -8.310708045959473
      ],
      [
        "ы",
        -8.314412117004395
      ],
      [
        "f",
        -8.315635681152344
      ],
      [
        "▁met",
        -8.31662368774414
      ],
      [
        "v",
        -8.319239616394043
      ],
      [
        "▁pour",
        -8.32197093963623
      ],
      [
        "▁H",
        -8.322068214416504
      ],
      [
        "▁that",
        -8.326996803283691
      ],
      [
        "▁nie",
        -8.332683563232422
      ],
      [
        "▁En",
        -8.334653854370117
      ],
      [
        "▁»",
        -8.344697952270508
      ],
      [
        "▁mit",
        -8.344818115234375
      ],
      [
        "日",
        -8.345295906066895
      ],
      [
        "▁W",
        -8.347254753112793
      ],
      [
        "о",
        -8.348562240600586
      ],
      [
        "í",
        -8.348651885986328
      ],
      [
        "ة",
        -8.354037284851074
      ],
      [
        "to",
        -8.355213165283203
      ],
      [
        "M",
        -8.359548568725586
      ],
      [
        "▁od",
        -8.360025405883789
      ],
      [
        "ti",
        -8.366875648498535
      ],
      [
        "▁și",
        -8.368824005126953
      ],
      [
        "ą",
        -8.370781898498535
      ],
      [
        "▁las",
        -8.373418807983398
      ],
      [
        "ja",
        -8.381311416625977
      ],
      [
        "▁&",
        -8.384395599365234
      ],
      [
        "ek",
        -8.384446144104004
      ],
      [
        "▁cho",
        -8.389466285705566
      ],
      [
        "▁با",
        -8.389930725097656
      ],
      [
        "▁voor",
        -8.394152641296387
      ],
      [
        "年",
        -8.39428424835205
      ],
      [
        "us",
        -8.39492416381836
      ],
      [
        "▁vi",
        -8.395744323730469
      ],
      [
        "▁este",
        -8.398706436157227
      ],
      [
        "T",
        -8.405258178710938
      ],
      [
        "á",
        -8.405519485473633
      ],
      [
        "▁mai",
        -8.411701202392578
      ],
      [
        "at",
        -8.412343978881836
      ],
      [
        "▁das",
        -8.413093566894531
      ],
      [
        "ς",
        -8.413873672485352
      ],
      [
        "ka",
        -8.413893699645996
      ],
      [
        "E",
        -8.414011001586914
      ],
      [
        "▁ب",
        -8.414571762084961
      ],
      [
        "j",
        -8.417662620544434
      ],
      [
        "▁von",
        -8.41884708404541
      ],
      [
        "▁các",
        -8.420880317687988
      ],
      [
        "▁care",
        -8.42140007019043
      ],
      [
        "▁var",
        -8.426020622253418
      ],
      [
        "▁zu",
        -8.429154396057129
      ],
      [
        "▁з",
        -8.430734634399414
      ],
      [
        "▁+",
        -8.432633399963379
      ],
      [
        "▁pentru",
        -8.433693885803223
      ],
      [
        "▁і",
        -8.43459701538086
      ],
      [
        "un",
        -8.436860084533691
      ],
      [
        "▁على",
        -8.43720531463623
      ],
      [
        "▁được",
        -8.439800262451172
      ],
      [
        "al",
        -8.443318367004395
      ],
      [
        "▁که",
        -8.443774223327637
      ],
      [
        "si",
        -8.445436477661133
      ],
      [
        "▁до",
        -8.447941780090332
      ],
      [
        "▁В",
        -8.449164390563965
      ],
      [
        "no",
        -8.450078964233398
      ],
      [
        "▁không",
        -8.4522705078125
      ],
      [
        "▁au",
        -8.45347785949707
      ],
      [
        "▁c",
        -8.454817771911621
      ],
      [
        "：",
        -8.459932327270508
      ],
      [
        "▁par",
        -8.475278854370117
      ],
      [
        "▁man",
        -8.477009773254395
      ],
      [
        "】",
        -8.478461265563965
      ],
      [
        "】【",
        -8.481756210327148
      ],
      [
        "it",
        -8.486873626708984
      ],
      [
        "ie",
        -8.489415168762207
      ],
      [
        "▁è",
        -8.499380111694336
      ],
      [
        "▁pro",
        -8.501551628112793
      ],
      [
        "P",
        -8.502518653869629
      ],
      [
        "K",
        -8.503602027893066
      ],
      [
        "▁для",
        -8.505906105041504
      ],
      [
        "」",
        -8.505939483642578
      ],
      [
        "▁ist",
        -8.506949424743652
      ],
      [
        "▁are",
        -8.507094383239746
      ],
      [
        "▁so",
        -8.507256507873535
      ],
      [
        "is",
        -8.509718894958496
      ],
      [
        "▁ce",
        -8.517077445983887
      ],
      [
        "▁me",
        -8.518560409545898
      ],
      [
        "ce",
        -8.521881103515625
      ],
      [
        "▁را",
        -8.525863647460938
      ],
      [
        "ou",
        -8.527219772338867
      ],
      [
        "ra",
        -8.529729843139648
      ],
      [
        "의",
        -8.530604362487793
      ],
      [
        "ي",
        -8.531817436218262
      ],
      [
        "“",
        -8.539034843444824
      ],
      [
        "▁—",
        -8.542745590209961
      ],
      [
        "▁است",
        -8.54561710357666
      ],
      [
        "▁Z",
        -8.552465438842773
      ],
      [
        "▁این",
        -8.553749084472656
      ],
      [
        "月",
        -8.563629150390625
      ],
      [
        "▁trong",
        -8.56679630279541
      ],
      [
        "й",
        -8.568034172058105
      ],
      [
        "▁ca",
        -8.56934928894043
      ],
      [
        "▁के",
        -8.574987411499023
      ],
      [
        "ia",
        -8.57789134979248
      ],
      [
        "▁ה",
        -8.579256057739258
      ],
      [
        "х",
        -8.581025123596191
      ],
      [
        "▁се",
        -8.58212947845459
      ],
      [
        "▁für",
        -8.582474708557129
      ],
      [
        "▁online",
        -8.583494186401367
      ],
      [
        "▁sur",
        -8.58489990234375
      ],
      [
        "▁was",
        -8.585572242736816
      ],
      [
        "▁να",
        -8.585819244384766
      ],
      [
        "▁một",
        -8.58625316619873
      ],
      [
        "ом",
        -8.587456703186035
      ],
      [
        "▁ma",
        -8.587972640991211
      ],
      [
        "▁với",
        -8.590014457702637
      ],
      [
        "▁του",
        -8.590130805969238
      ],
      [
        "mi",
        -8.590222358703613
      ],
      [
        "▁lo",
        -8.593459129333496
      ],
      [
        "▁é",
        -8.593709945678711
      ],
      [
        "▁como",
        -8.600582122802734
      ],
      [
        "▁dat",
        -8.600883483886719
      ],
      [
        "L",
        -8.602307319641113
      ],
      [
        "을",
        -8.611604690551758
      ],
      [
        "▁x",
        -8.61387825012207
      ],
      [
        "do",
        -8.620194435119629
      ],
      [
        "も",
        -8.622537612915039
      ],
      [
        "▁U",
        -8.622808456420898
      ],
      [
        "▁το",
        -8.623248100280762
      ],
      [
        "▁est",
        -8.626299858093262
      ],
      [
        "▁it",
        -8.634186744689941
      ],
      [
        "me",
        -8.641654014587402
      ],
      [
        "や",
        -8.648761749267578
      ],
      [
        "▁Le",
        -8.650972366333008
      ],
      [
        "V",
        -8.655296325683594
      ],
      [
        "G",
        -8.657201766967773
      ],
      [
        "ó",
        -8.659488677978516
      ],
      [
        "▁ir",
        -8.660531997680664
      ],
      [
        "▁till",
        -8.662866592407227
      ],
      [
        "▁El",
        -8.662880897521973
      ],
      [
        "▁să",
        -8.664571762084961
      ],
      [
        "N",
        -8.67104434967041
      ],
      [
        "▁im",
        -8.671894073486328
      ],
      [
        "ki",
        -8.675713539123535
      ],
      [
        "&",
        -8.67859172821045
      ],
      [
        "+",
        -8.681321144104004
      ],
      [
        "▁å",
        -8.682319641113281
      ],
      [
        "▁une",
        -8.68835735321045
      ],
      [
        "▁p",
        -8.698104858398438
      ],
      [
        "▁n",
        -8.698439598083496
      ],
      [
        "▁auf",
        -8.698481559753418
      ],
      [
        "▁over",
        -8.699334144592285
      ],
      [
        "▁dans",
        -8.69965934753418
      ],
      [
        "▁så",
        -8.702605247497559
      ],
      [
        "ات",
        -8.70270824432373
      ],
      [
        "▁or",
        -8.705388069152832
      ],
      [
        "▁non",
        -8.711261749267578
      ],
      [
        "R",
        -8.719265937805176
      ],
      [
        "\",\"",
        -8.721344947814941
      ],
      [
        "I",
        -8.7239351272583
      ],
      [
        "am",
        -8.724237442016602
      ],
      [
        "F",
        -8.728675842285156
      ],
      [
        "▁mi",
        -8.729018211364746
      ],
      [
        "▁als",
        -8.730021476745605
      ],
      [
        "il",
        -8.731546401977539
      ],
      [
        "「",
        -8.731757164001465
      ],
      [
        "▁ב",
        -8.734739303588867
      ],
      [
        "▁men",
        -8.740743637084961
      ],
      [
        "▁ta",
        -8.74873161315918
      ],
      [
        "▁dan",
        -8.749011039733887
      ],
      [
        "▁pas",
        -8.751058578491211
      ],
      [
        "je",
        -8.75126838684082
      ],
      [
        "▁bu",
        -8.760100364685059
      ],
      [
        "▁os",
        -8.761754035949707
      ],
      [
        "▁ale",
        -8.761813163757324
      ],
      [
        "▁Det",
        -8.762673377990723
      ],
      [
        "▁ki",
        -8.764632225036621
      ],
      [
        "▁της",
        -8.765390396118164
      ],
      [
        "▁người",
        -8.766916275024414
      ],
      [
        "▁ou",
        -8.767132759094238
      ],
      [
        "▁qui",
        -8.774887084960938
      ],
      [
        "▁am",
        -8.775812149047852
      ],
      [
        "ю",
        -8.776301383972168
      ],
      [
        "이",
        -8.776962280273438
      ],
      [
        "▁ein",
        -8.77937126159668
      ],
      [
        "ma",
        -8.78248119354248
      ],
      [
        "est",
        -8.783341407775879
      ],
      [
        "▁می",
        -8.784261703491211
      ],
      [
        "▁eller",
        -8.784660339355469
      ],
      [
        "▁>",
        -8.792915344238281
      ],
      [
        "▁ikke",
        -8.793487548828125
      ],
      [
        "ت",
        -8.795007705688477
      ],
      [
        "O",
        -8.797201156616211
      ],
      [
        "​",
        -8.801218032836914
      ],
      [
        "▁•",
        -8.801575660705566
      ],
      [
        "den",
        -8.80178451538086
      ],
      [
        "ci",
        -8.802143096923828
      ],
      [
        "▁b",
        -8.80275821685791
      ],
      [
        "▁J",
        -8.80366325378418
      ],
      [
        "▁fra",
        -8.804008483886719
      ],
      [
        "ly",
        -8.806404113769531
      ],
      [
        "▁zijn",
        -8.819950103759766
      ],
      [
        "▁Na",
        -8.823156356811523
      ],
      [
        "H",
        -8.825518608093262
      ],
      [
        "▁della",
        -8.827404975891113
      ],
      [
        "om",
        -8.82819652557373
      ],
      [
        "▁την",
        -8.828239440917969
      ],
      [
        "▁we",
        -8.833717346191406
      ],
      [
        "▁all",
        -8.836935043334961
      ],
      [
        "▁your",
        -8.837838172912598
      ],
      [
        "▁va",
        -8.838790893554688
      ],
      [
        "ов",
        -8.840471267700195
      ],
      [
        "▁ra",
        -8.840580940246582
      ],
      [
        "▁from",
        -8.840641021728516
      ],
      [
        "w",
        -8.841163635253906
      ],
      [
        "▁những",
        -8.843497276306152
      ],
      [
        "▁co",
        -8.848196983337402
      ],
      [
        "ها",
        -8.850505828857422
      ],
      [
        "www",
        -8.854349136352539
      ],
      [
        "▁jest",
        -8.859452247619629
      ],
      [
        "▁та",
        -8.860097885131836
      ],
      [
        "▁Se",
        -8.860588073730469
      ],
      [
        "st",
        -8.860814094543457
      ],
      [
        "▁can",
        -8.861639022827148
      ],
      [
        "el",
        -8.86430549621582
      ],
      [
        "▁а",
        -8.865856170654297
      ],
      [
        "▁sau",
        -8.865912437438965
      ],
      [
        "▁mais",
        -8.867186546325684
      ],
      [
        "va",
        -8.86795425415039
      ],
      [
        "▁že",
        -8.872509002685547
      ],
      [
        "▁have",
        -8.880155563354492
      ],
      [
        "▁this",
        -8.880602836608887
      ],
      [
        "大",
        -8.882912635803223
      ],
      [
        "ا",
        -8.884825706481934
      ],
      [
        "▁uma",
        -8.888354301452637
      ],
      [
        "на",
        -8.888586044311523
      ],
      [
        "▁aan",
        -8.889518737792969
      ],
      [
        "▁g",
        -8.889971733093262
      ],
      [
        "\":\"",
        -8.890555381774902
      ],
      [
        "▁Sie",
        -8.890804290771484
      ],
      [
        "です",
        -8.89164924621582
      ],
      [
        "▁ser",
        -8.897207260131836
      ],
      [
        "▁में",
        -8.89728832244873
      ],
      [
        "▁С",
        -8.898031234741211
      ],
      [
        "▁،",
        -8.899624824523926
      ],
      [
        "▁из",
        -8.900883674621582
      ],
      [
        "▁με",
        -8.901615142822266
      ],
      [
        "人",
        -8.903056144714355
      ],
      [
        "ai",
        -8.906479835510254
      ],
      [
        "W",
        -8.914306640625
      ],
      [
        "▁tu",
        -8.919954299926758
      ],
      [
        "ho",
        -8.921006202697754
      ],
      [
        "▁alle",
        -8.921326637268066
      ],
      [
        "▁http",
        -8.92545223236084
      ],
      [
        "▁है",
        -8.927477836608887
      ],
      [
        "▁thể",
        -8.9275541305542
      ],
      [
        "lar",
        -8.928359031677246
      ],
      [
        "▁dem",
        -8.92894172668457
      ],
      [
        "▁ت",
        -8.931394577026367
      ],
      [
        "▁при",
        -8.931434631347656
      ],
      [
        "ę",
        -8.934104919433594
      ],
      [
        "에",
        -8.9373779296875
      ],
      [
        "▁ל",
        -8.938486099243164
      ],
      [
        "일",
        -8.938639640808105
      ],
      [
        "▁€",
        -8.942822456359863
      ],
      [
        "▁ل",
        -8.944181442260742
      ],
      [
        "▁е",
        -8.946152687072754
      ],
      [
        "▁để",
        -8.9464693069458
      ],
      [
        "ve",
        -8.949906349182129
      ],
      [
        "▁Vi",
        -8.952031135559082
      ],
      [
        "▁km",
        -8.952102661132812
      ],
      [
        "▁son",
        -8.953267097473145
      ],
      [
        "▁şi",
        -8.95423412322998
      ],
      [
        "から",
        -8.954989433288574
      ],
      [
        "id",
        -8.955824851989746
      ],
      [
        "▁No",
        -8.956014633178711
      ],
      [
        "！",
        -8.956579208374023
      ],
      [
        "▁için",
        -8.95776081085205
      ],
      [
        "▁Die",
        -8.958971977233887
      ],
      [
        "▁ي",
        -8.959060668945312
      ],
      [
        "ий",
        -8.967884063720703
      ],
      [
        "▁что",
        -8.968100547790527
      ],
      [
        "▁‘",
        -8.969925880432129
      ],
      [
        "ca",
        -8.970674514770508
      ],
      [
        "▁για",
        -8.971479415893555
      ],
      [
        "な",
        -8.971790313720703
      ],
      [
        "ler",
        -8.972325325012207
      ],
      [
        "▁Y",
        -8.97276496887207
      ],
      [
        "▁'",
        -8.97458553314209
      ],
      [
        "中",
        -8.976022720336914
      ],
      [
        "▁$",
        -8.978840827941895
      ],
      [
        "▁hogy",
        -8.979240417480469
      ],
      [
        "▁Il",
        -8.983016967773438
      ],
      [
        "ה",
        -8.9840087890625
      ],
      [
        "▁tak",
        -8.990878105163574
      ],
      [
        "▁ver",
        -8.996597290039062
      ],
      [
        "▁bạn",
        -8.997051239013672
      ],
      [
        "▁plus",
        -8.998713493347168
      ],
      [
        "be",
        -9.000747680664062
      ],
      [
        "▁nicht",
        -9.001444816589355
      ],
      [
        "▁đã",
        -9.002364158630371
      ],
      [
        "ية",
        -9.00777816772461
      ],
      [
        "ej",
        -9.01072883605957
      ],
      [
        "▁nem",
        -9.011310577392578
      ],
      [
        "▁=",
        -9.012989044189451
      ],
      [
        "ów",
        -9.018756866455078
      ],
      [
        "ого",
        -9.021221160888672
      ],
      [
        "一",
        -9.024405479431152
      ],
      [
        "▁أن",
        -9.02443504333496
      ],
      [
        "▁από",
        -9.025622367858888
      ],
      [
        "▁ze",
        -9.028925895690918
      ],
      [
        "ului",
        -9.029196739196776
      ],
      [
        "▁porno",
        -9.030158996582031
      ],
      [
        "та",
        -9.034786224365234
      ],
      [
        "▁dos",
        -9.03640365600586
      ],
      [
        "▁re",
        -9.03661060333252
      ],
      [
        "▁her",
        -9.039745330810549
      ],
      [
        "lo",
        -9.0407075881958
      ],
      [
        "在",
        -9.0408353805542
      ],
      [
        "▁más",
        -9.0458984375
      ],
      [
        "▁sich",
        -9.04635524749756
      ],
      [
        "▁لل",
        -9.049174308776855
      ],
      [
        "ten",
        -9.050232887268066
      ],
      [
        "和",
        -9.054503440856934
      ],
      [
        "ой",
        -9.054604530334473
      ],
      [
        "▁Re",
        -9.054840087890623
      ],
      [
        "\",",
        -9.054896354675291
      ],
      [
        "co",
        -9.058309555053713
      ],
      [
        "mm",
        -9.063982009887695
      ],
      [
        "or",
        -9.064680099487305
      ],
      [
        "▁vous",
        -9.065144538879396
      ],
      [
        "▁·",
        -9.068133354187012
      ],
      [
        "▁eine",
        -9.068283081054688
      ],
      [
        "م",
        -9.069817543029783
      ],
      [
        "▁niet",
        -9.07365608215332
      ],
      [
        "▁ich",
        -9.082664489746094
      ],
      [
        "▁برای",
        -9.084760665893556
      ],
      [
        "▁وال",
        -9.086312294006348
      ],
      [
        "▁công",
        -9.090641021728516
      ],
      [
        "▁های",
        -9.090856552124023
      ],
      [
        "▁not",
        -9.092305183410645
      ],
      [
        "ndo",
        -9.094030380249023
      ],
      [
        "▁που",
        -9.096104621887209
      ],
      [
        "ů",
        -9.096503257751465
      ],
      [
        "ok",
        -9.103988647460938
      ],
      [
        "*",
        -9.1044921875
      ],
      [
        "ro",
        -9.10480499267578
      ],
      [
        "▁【",
        -9.107686042785645
      ],
      [
        "▁X",
        -9.108102798461914
      ],
      [
        "▁*",
        -9.108396530151367
      ],
      [
        "▁ar",
        -9.109240531921388
      ],
      [
        "α",
        -9.109526634216309
      ],
      [
        "▁Sex",
        -9.109707832336426
      ],
      [
        "°",
        -9.11008071899414
      ],
      [
        "▁will",
        -9.110718727111816
      ],
      [
        "▁о",
        -9.114803314208984
      ],
      [
        "ів",
        -9.117560386657717
      ],
      [
        "▁này",
        -9.119122505187988
      ],
      [
        "ní",
        -9.11991024017334
      ],
      [
        "ý",
        -9.11995792388916
      ],
      [
        "▁к",
        -9.12274932861328
      ],
      [
        "ка",
        -9.123824119567873
      ],
      [
        "▁auch",
        -9.125218391418455
      ],
      [
        "т",
        -9.12827205657959
      ],
      [
        "U",
        -9.130351066589355
      ],
      [
        "ku",
        -9.132681846618652
      ],
      [
        "▁że",
        -9.134817123413086
      ],
      [
        "▁А",
        -9.13617992401123
      ],
      [
        "ny",
        -9.136955261230469
      ],
      [
        "▁की",
        -9.140129089355469
      ],
      [
        "▁não",
        -9.141942977905272
      ],
      [
        "их",
        -9.14400863647461
      ],
      [
        "▁To",
        -9.144268989562988
      ],
      [
        "▁про",
        -9.14559268951416
      ],
      [
        "가",
        -9.14707088470459
      ],
      [
        ">",
        -9.15065860748291
      ],
      [
        "▁meg",
        -9.152924537658691
      ],
      [
        "▁У",
        -9.155609130859377
      ],
      [
        "▁avec",
        -9.158616065979004
      ],
      [
        "し",
        -9.159101486206056
      ],
      [
        "▁https",
        -9.15945816040039
      ],
      [
        "▁ما",
        -9.160028457641602
      ],
      [
        "▁đến",
        -9.161835670471191
      ],
      [
        "▁ett",
        -9.165090560913086
      ],
      [
        "X",
        -9.165517807006836
      ],
      [
        "▁م",
        -9.167808532714844
      ],
      [
        "은",
        -9.168325424194336
      ],
      [
        "▁cm",
        -9.170544624328612
      ],
      [
        "▁jak",
        -9.17327880859375
      ],
      [
        "▁inte",
        -9.173880577087402
      ],
      [
        "▁yang",
        -9.173911094665527
      ],
      [
        "Y",
        -9.177431106567385
      ],
      [
        "▁như",
        -9.178027153015137
      ],
      [
        "но",
        -9.179973602294922
      ],
      [
        "ba",
        -9.18001937866211
      ],
      [
        "[",
        -9.182841300964355
      ],
      [
        "上",
        -9.19171142578125
      ],
      [
        "▁alla",
        -9.19213581085205
      ],
      [
        "▁ile",
        -9.194324493408203
      ],
      [
        "um",
        -9.19468879699707
      ],
      [
        "分",
        -9.196216583251951
      ],
      [
        "are",
        -9.198182106018066
      ],
      [
        "▁ge",
        -9.203306198120115
      ],
      [
        "▁khi",
        -9.204830169677734
      ],
      [
        "man",
        -9.204949378967283
      ],
      [
        "▁về",
        -9.206457138061523
      ],
      [
        "▁pre",
        -9.208428382873535
      ],
      [
        "J",
        -9.21103286743164
      ],
      [
        "▁Un",
        -9.212934494018556
      ],
      [
        "▁f",
        -9.21459674835205
      ],
      [
        "▁Bu",
        -9.21536922454834
      ],
      [
        "то",
        -9.21805191040039
      ],
      [
        "▁bij",
        -9.21866226196289
      ],
      [
        "ки",
        -9.22222900390625
      ],
      [
        "▁sẽ",
        -9.226749420166016
      ],
      [
        "ين",
        -9.227383613586426
      ],
      [
        "▁של",
        -9.229059219360352
      ],
      [
        "\\",
        -9.233264923095703
      ],
      [
        "ze",
        -9.23354148864746
      ],
      [
        "▁fi",
        -9.23507022857666
      ],
      [
        "▁Du",
        -9.237391471862791
      ],
      [
        "”,",
        -9.241497993469238
      ],
      [
        "‌",
        -9.24232006072998
      ],
      [
        "▁tại",
        -9.242593765258787
      ],
      [
        "▁що",
        -9.244343757629396
      ],
      [
        "▁إلى",
        -9.245597839355469
      ],
      [
        "▁η",
        -9.245648384094238
      ],
      [
        "ban",
        -9.250565528869627
      ],
      [
        "ת",
        -9.252756118774414
      ],
      [
        "는",
        -9.253786087036133
      ],
      [
        "ya",
        -9.255449295043944
      ],
      [
        "▁làm",
        -9.257942199707031
      ],
      [
        "▁prostitutas",
        -9.25929069519043
      ],
      [
        "\".",
        -9.260605812072754
      ],
      [
        "▁ook",
        -9.26096248626709
      ],
      [
        "用",
        -9.261031150817873
      ],
      [
        "有",
        -9.263602256774902
      ],
      [
        "ים",
        -9.26638889312744
      ],
      [
        "▁ở",
        -9.270228385925291
      ],
      [
        "ben",
        -9.274561882019045
      ],
      [
        "za",
        -9.275379180908203
      ],
      [
        "▁aus",
        -9.27619457244873
      ],
      [
        "ų",
        -9.277173042297363
      ],
      [
        "ach",
        -9.277414321899414
      ],
      [
        "ng",
        -9.277793884277344
      ],
      [
        "▁că",
        -9.278164863586426
      ],
      [
        "▁Po",
        -9.279398918151855
      ],
      [
        "市",
        -9.281020164489746
      ],
      [
        "▁han",
        -9.281084060668944
      ],
      [
        "Z",
        -9.284199714660645
      ],
      [
        "ь",
        -9.285602569580078
      ],
      [
        "▁pa",
        -9.28700065612793
      ],
      [
        "▁מ",
        -9.287132263183594
      ],
      [
        "▁jag",
        -9.287274360656738
      ],
      [
        "▁video",
        -9.288387298583984
      ],
      [
        "▁sobre",
        -9.288899421691896
      ],
      [
        "【",
        -9.288959503173828
      ],
      [
        "▁bei",
        -9.290204048156738
      ],
      [
        "ge",
        -9.291275024414062
      ],
      [
        "▁Si",
        -9.29353141784668
      ],
      [
        "”.",
        -9.294053077697754
      ],
      [
        "▁số",
        -9.294472694396973
      ],
      [
        "不",
        -9.295269012451172
      ],
      [
        "▁từ",
        -9.295724868774414
      ],
      [
        "▁ا",
        -9.296393394470217
      ],
      [
        "ami",
        -9.297510147094728
      ],
      [
        "▁egy",
        -9.297941207885742
      ],
      [
        "ri",
        -9.298110961914062
      ],
      [
        "▁sex",
        -9.302130699157717
      ],
      [
        "в",
        -9.302416801452637
      ],
      [
        "▁ei",
        -9.303674697875977
      ],
      [
        "▁Hotel",
        -9.306963920593262
      ],
      [
        "#",
        -9.313880920410156
      ],
      [
        "ir",
        -9.313974380493164
      ],
      [
        "를",
        -9.314069747924805
      ],
      [
        "고",
        -9.314899444580078
      ],
      [
        "▁hàng",
        -9.3151216506958
      ],
      [
        "▁На",
        -9.315470695495604
      ],
      [
        "cm",
        -9.315823554992676
      ],
      [
        "する",
        -9.318875312805176
      ],
      [
        "▁Online",
        -9.319117546081545
      ],
      [
        "▁ut",
        -9.319117546081545
      ],
      [
        "go",
        -9.31997013092041
      ],
      [
        "à",
        -9.32127285003662
      ],
      [
        "▁ka",
        -9.32261562347412
      ],
      [
        "$",
        -9.323333740234377
      ],
      [
        "ov",
        -9.32631015777588
      ],
      [
        "ant",
        -9.327352523803713
      ],
      [
        "▁Je",
        -9.32744598388672
      ],
      [
        "▁את",
        -9.327888488769531
      ],
      [
        "ment",
        -9.328221321105955
      ],
      [
        "▁entre",
        -9.331778526306152
      ],
      [
        "▁has",
        -9.33360481262207
      ],
      [
        "▁или",
        -9.333916664123535
      ],
      [
        "本",
        -9.335065841674805
      ],
      [
        "▁For",
        -9.336483001708984
      ],
      [
        "▁nhiều",
        -9.33673858642578
      ],
      [
        "▁को",
        -9.33686637878418
      ],
      [
        "▁nhà",
        -9.338146209716797
      ],
      [
        "▁cũng",
        -9.3392915725708
      ],
      [
        "▁trên",
        -9.339996337890623
      ],
      [
        "ru",
        -9.343242645263672
      ],
      [
        "▁h",
        -9.345382690429688
      ],
      [
        "\":",
        -9.34654712677002
      ],
      [
        "ga",
        -9.347853660583496
      ],
      [
        "ите",
        -9.348581314086914
      ],
      [
        "▁से",
        -9.34942626953125
      ],
      [
        "nin",
        -9.349839210510254
      ],
      [
        "▁r",
        -9.351372718811035
      ],
      [
        "ur",
        -9.35288143157959
      ],
      [
        "▁dụng",
        -9.352949142456056
      ],
      [
        "▁vào",
        -9.353774070739746
      ],
      [
        "▁sin",
        -9.355911254882812
      ],
      [
        "ان",
        -9.3560209274292
      ],
      [
        "di",
        -9.356290817260742
      ],
      [
        "nie",
        -9.359357833862305
      ],
      [
        "▁nos",
        -9.36167335510254
      ],
      [
        "한",
        -9.362524032592772
      ],
      [
        "▁DE",
        -9.364175796508787
      ],
      [
        "い",
        -9.36805820465088
      ],
      [
        "▁gratis",
        -9.37468147277832
      ],
      [
        "▁ya",
        -9.374788284301758
      ],
      [
        "▁Pro",
        -9.375617027282717
      ],
      [
        "▁my",
        -9.375811576843262
      ],
      [
        "ä",
        -9.376716613769531
      ],
      [
        "▁lại",
        -9.37751007080078
      ],
      [
        "▁nhất",
        -9.378117561340332
      ],
      [
        "ο",
        -9.379023551940918
      ],
      [
        "ни",
        -9.379852294921877
      ],
      [
        "nt",
        -9.384175300598145
      ],
      [
        "▁عن",
        -9.384949684143066
      ],
      [
        "▁τα",
        -9.385416030883787
      ],
      [
        "了",
        -9.389952659606934
      ],
      [
        "@",
        -9.390179634094238
      ],
      [
        "▁σε",
        -9.3911771774292
      ],
      [
        "▁jeg",
        -9.391797065734863
      ],
      [
        "ky",
        -9.393319129943848
      ],
      [
        "ko",
        -9.39377784729004
      ],
      [
        "▁как",
        -9.394609451293944
      ],
      [
        "ли",
        -9.395054817199709
      ],
      [
        "是",
        -9.39576530456543
      ],
      [
        "▁uit",
        -9.396528244018556
      ],
      [
        "▁sono",
        -9.396571159362791
      ],
      [
        "▁pod",
        -9.398340225219728
      ],
      [
        "▁door",
        -9.398603439331056
      ],
      [
        "▁oder",
        -9.400792121887209
      ],
      [
        "▁dit",
        -9.40321445465088
      ],
      [
        "▁Do",
        -9.404232025146484
      ],
      [
        "не",
        -9.404496192932127
      ],
      [
        "ik",
        -9.404544830322266
      ],
      [
        "sa",
        -9.406753540039062
      ],
      [
        "uri",
        -9.408439636230469
      ],
      [
        "sta",
        -9.410500526428224
      ],
      [
        "出",
        -9.411703109741213
      ],
      [
        "lor",
        -9.41349983215332
      ],
      [
        "▁more",
        -9.413683891296388
      ],
      [
        "th",
        -9.414450645446776
      ],
      [
        "▁qu",
        -9.41545581817627
      ],
      [
        "те",
        -9.41599464416504
      ],
      [
        "▁مع",
        -9.417410850524902
      ],
      [
        "né",
        -9.418065071105955
      ],
      [
        "▁vor",
        -9.419254302978516
      ],
      [
        "▁đó",
        -9.42023754119873
      ],
      [
        "▁werden",
        -9.430087089538574
      ],
      [
        "▁sind",
        -9.433066368103027
      ],
      [
        "net",
        -9.43385410308838
      ],
      [
        "▁К",
        -9.438756942749023
      ],
      [
        "▁bo",
        -9.439019203186035
      ],
      [
        "▁Be",
        -9.439821243286133
      ],
      [
        "로",
        -9.44141960144043
      ],
      [
        "▁Les",
        -9.442280769348145
      ],
      [
        "dan",
        -9.448370933532717
      ],
      [
        "ى",
        -9.449325561523438
      ],
      [
        "▁come",
        -9.453452110290527
      ],
      [
        "▁đầu",
        -9.455759048461914
      ],
      [
        "▁vil",
        -9.456409454345703
      ],
      [
        "▁Per",
        -9.456659317016602
      ],
      [
        "▁ik",
        -9.456794738769531
      ],
      [
        "▁skal",
        -9.45949649810791
      ],
      [
        "▁under",
        -9.463163375854492
      ],
      [
        "도",
        -9.46385383605957
      ],
      [
        "▁tot",
        -9.46641445159912
      ],
      [
        "▁των",
        -9.468731880187988
      ],
      [
        "▁An",
        -9.468745231628418
      ],
      [
        "円",
        -9.469314575195312
      ],
      [
        "▁We",
        -9.469446182250977
      ],
      [
        "▁Der",
        -9.47052001953125
      ],
      [
        "▁Er",
        -9.472290992736816
      ],
      [
        "im",
        -9.473983764648438
      ],
      [
        "▁più",
        -9.474823951721191
      ],
      [
        "ado",
        -9.478610038757324
      ],
      [
        "▁ni",
        -9.479195594787598
      ],
      [
        "ами",
        -9.479687690734863
      ],
      [
        "ke",
        -9.47984790802002
      ],
      [
        "？",
        -9.480082511901855
      ],
      [
        "▁Het",
        -9.481427192687988
      ],
      [
        "▁mm",
        -9.48154354095459
      ],
      [
        "▁είναι",
        -9.482847213745115
      ],
      [
        "▁bị",
        -9.485074043273926
      ],
      [
        "ми",
        -9.487112045288086
      ],
      [
        "ú",
        -9.488083839416504
      ],
      [
        "q",
        -9.488672256469728
      ],
      [
        "会",
        -9.490497589111328
      ],
      [
        "▁t",
        -9.490545272827148
      ],
      [
        "▁dell",
        -9.491466522216797
      ],
      [
        "ć",
        -9.492860794067385
      ],
      [
        "ha",
        -9.493477821350098
      ],
      [
        "▁ο",
        -9.493552207946776
      ],
      [
        "▁hiện",
        -9.496055603027344
      ],
      [
        "した",
        -9.496563911437988
      ],
      [
        "▁ngày",
        -9.500572204589844
      ],
      [
        "mos",
        -9.500823974609377
      ],
      [
        "▁but",
        -9.501025199890137
      ],
      [
        "▁sự",
        -9.501235961914062
      ],
      [
        "▁bez",
        -9.501853942871094
      ],
      [
        "り",
        -9.501855850219728
      ],
      [
        "▁са",
        -9.502730369567873
      ],
      [
        "▁up",
        -9.503850936889648
      ],
      [
        "▁sie",
        -9.505206108093262
      ],
      [
        "▁στο",
        -9.505888938903809
      ],
      [
        "▁mas",
        -9.50910758972168
      ],
      [
        "ك",
        -9.509469985961914
      ],
      [
        "▁ng",
        -9.511629104614258
      ],
      [
        "с",
        -9.51305866241455
      ],
      [
        "▁động",
        -9.51315975189209
      ],
      [
        "ei",
        -9.515111923217772
      ],
      [
        "高",
        -9.515159606933594
      ],
      [
        "▁dla",
        -9.516068458557127
      ],
      [
        "▁he",
        -9.518174171447754
      ],
      [
        "▁ad",
        -9.519015312194824
      ],
      [
        "▁вы",
        -9.519737243652344
      ],
      [
        "▁parte",
        -9.52110481262207
      ],
      [
        "▁site",
        -9.521665573120115
      ],
      [
        "▁और",
        -9.52281379699707
      ],
      [
        "お",
        -9.523472785949709
      ],
      [
        "ları",
        -9.525495529174805
      ],
      [
        "▁dei",
        -9.526212692260742
      ],
      [
        "▁Co",
        -9.526626586914062
      ],
      [
        "▁dar",
        -9.527233123779297
      ],
      [
        "cz",
        -9.529308319091797
      ],
      [
        "▁wie",
        -9.531150817871094
      ],
      [
        "ě",
        -9.531807899475098
      ],
      [
        "ी",
        -9.533758163452148
      ],
      [
        "▁@",
        -9.533763885498049
      ],
      [
        "１",
        -9.53587245941162
      ],
      [
        "▁Home",
        -9.5371675491333
      ],
      [
        "ter",
        -9.5377836227417
      ],
      [
        "▁chỉ",
        -9.537939071655272
      ],
      [
        "▁का",
        -9.538041114807127
      ],
      [
        "▁أ",
        -9.538296699523926
      ],
      [
        "ή",
        -9.538681983947754
      ],
      [
        "л",
        -9.539487838745115
      ],
      [
        "▁Es",
        -9.540692329406738
      ],
      [
        "▁М",
        -9.542143821716309
      ],
      [
        "ego",
        -9.54287052154541
      ],
      [
        "▁Az",
        -9.543006896972656
      ],
      [
        "▁të",
        -9.543073654174805
      ],
      [
        "지",
        -9.543120384216309
      ],
      [
        "▁giá",
        -9.54396915435791
      ],
      [
        "▁tra",
        -9.54423713684082
      ],
      [
        "▁О",
        -9.54481601715088
      ],
      [
        "▁Pentru",
        -9.545283317565918
      ],
      [
        "▁năm",
        -9.545950889587402
      ],
      [
        "▁sig",
        -9.546547889709473
      ],
      [
        "ות",
        -9.546576499938965
      ],
      [
        "Ã",
        -9.54832363128662
      ],
      [
        "▁sunt",
        -9.550708770751951
      ],
      [
        "tu",
        -9.551161766052246
      ],
      [
        "ele",
        -9.551424980163574
      ],
      [
        "▁آن",
        -9.552444458007812
      ],
      [
        "▁nel",
        -9.553584098815918
      ],
      [
        "▁thành",
        -9.555184364318848
      ],
      [
        "▁naar",
        -9.558249473571776
      ],
      [
        "▁…",
        -9.558965682983398
      ],
      [
        "au",
        -9.560280799865724
      ],
      [
        "ό",
        -9.560465812683104
      ],
      [
        "▁За",
        -9.561964988708496
      ],
      [
        "ая",
        -9.56441593170166
      ],
      [
        "▁mà",
        -9.56442928314209
      ],
      [
        "ти",
        -9.564690589904783
      ],
      [
        "▁від",
        -9.566169738769531
      ],
      [
        "▁ved",
        -9.566405296325684
      ],
      [
        "ad",
        -9.568384170532228
      ],
      [
        "▁việc",
        -9.568833351135254
      ],
      [
        "新",
        -9.569170951843262
      ],
      [
        "им",
        -9.56951904296875
      ],
      [
        "▁min",
        -9.570210456848145
      ],
      [
        "地",
        -9.570453643798828
      ],
      [
        "ά",
        -9.572421073913574
      ],
      [
        "ig",
        -9.573338508605955
      ],
      [
        "▁sem",
        -9.574316024780272
      ],
      [
        "▁ke",
        -9.574921607971191
      ],
      [
        "η",
        -9.576512336730955
      ],
      [
        "ers",
        -9.57777976989746
      ],
      [
        "水",
        -9.57874870300293
      ],
      [
        "lik",
        -9.578962326049805
      ],
      [
        "く",
        -9.580862045288086
      ],
      [
        "▁И",
        -9.581695556640623
      ],
      [
        "▁one",
        -9.581750869750977
      ],
      [
        "▁web",
        -9.581864356994627
      ],
      [
        "下",
        -9.582995414733888
      ],
      [
        "▁لا",
        -9.58477783203125
      ],
      [
        "–",
        -9.58528995513916
      ],
      [
        "▁mer",
        -9.587337493896484
      ],
      [
        "▁olarak",
        -9.587556838989258
      ],
      [
        "kan",
        -9.587834358215332
      ],
      [
        "▁phải",
        -9.589276313781738
      ],
      [
        "る",
        -9.590428352355955
      ],
      [
        "리",
        -9.590561866760254
      ],
      [
        "une",
        -9.592447280883787
      ],
      [
        "金",
        -9.592710494995115
      ],
      [
        "▁thì",
        -9.592941284179688
      ],
      [
        "ak",
        -9.59653091430664
      ],
      [
        "د",
        -9.596592903137209
      ],
      [
        "▁från",
        -9.597138404846191
      ],
      [
        "▁sont",
        -9.599675178527832
      ],
      [
        "▁fost",
        -9.602523803710938
      ],
      [
        "▁sua",
        -9.603078842163086
      ],
      [
        "▁Al",
        -9.604206085205078
      ],
      [
        "ye",
        -9.604806900024414
      ],
      [
        "ен",
        -9.605119705200195
      ],
      [
        "▁על",
        -9.605313301086426
      ],
      [
        "▁hay",
        -9.606304168701172
      ],
      [
        "ون",
        -9.606348037719728
      ],
      [
        "▁hat",
        -9.607122421264648
      ],
      [
        "▁år",
        -9.611700057983398
      ],
      [
        "▁Men",
        -9.613551139831545
      ],
      [
        "Q",
        -9.61558437347412
      ],
      [
        "기",
        -9.61931610107422
      ],
      [
        "▁ו",
        -9.620570182800291
      ],
      [
        "▁også",
        -9.622852325439451
      ],
      [
        "▁то",
        -9.623286247253418
      ],
      [
        "▁sản",
        -9.624300956726074
      ],
      [
        "行",
        -9.62556266784668
      ],
      [
        "▁ن",
        -9.628148078918455
      ],
      [
        "▁یک",
        -9.628251075744627
      ],
      [
        "▁delle",
        -9.62834930419922
      ],
      [
        "か",
        -9.628854751586914
      ],
      [
        "ste",
        -9.629110336303713
      ],
      [
        "▁التي",
        -9.630619049072266
      ],
      [
        "اً",
        -9.630925178527832
      ],
      [
        "▁maar",
        -9.63138484954834
      ],
      [
        "io",
        -9.63141632080078
      ],
      [
        "nde",
        -9.631811141967772
      ],
      [
        "▁nach",
        -9.632087707519531
      ],
      [
        "▁По",
        -9.633708000183104
      ],
      [
        "▁Para",
        -9.634922981262209
      ],
      [
        "▁mal",
        -9.634934425354004
      ],
      [
        "×",
        -9.63534164428711
      ],
      [
        "▁film",
        -9.635774612426758
      ],
      [
        "▁الم",
        -9.63598918914795
      ],
      [
        "▁но",
        -9.637563705444336
      ],
      [
        "ı",
        -9.638473510742188
      ],
      [
        "▁ko",
        -9.64062786102295
      ],
      [
        "▁ao",
        -9.641424179077148
      ],
      [
        "▁بر",
        -9.641640663146973
      ],
      [
        "▁Ver",
        -9.641927719116213
      ],
      [
        "mu",
        -9.642707824707031
      ],
      [
        "by",
        -9.643149375915527
      ],
      [
        "子",
        -9.644871711730955
      ],
      [
        "▁sus",
        -9.64720344543457
      ],
      [
        "▁anche",
        -9.648435592651367
      ],
      [
        "ot",
        -9.649055480957031
      ],
      [
        "ных",
        -9.64927864074707
      ],
      [
        "▁Di",
        -9.649703025817873
      ],
      [
        "▁П",
        -9.65068817138672
      ],
      [
        "▁hợp",
        -9.650994300842283
      ],
      [
        "».",
        -9.65181827545166
      ],
      [
        "では",
        -9.652289390563965
      ],
      [
        "手",
        -9.65273380279541
      ],
      [
        "▁tai",
        -9.653366088867188
      ],
      [
        "▁worden",
        -9.65414047241211
      ],
      [
        "ção",
        -9.654189109802246
      ],
      [
        "▁أو",
        -9.654424667358398
      ],
      [
        "ть",
        -9.65517520904541
      ],
      [
        "▁nước",
        -9.65528678894043
      ],
      [
        "my",
        -9.655787467956545
      ],
      [
        "▁học",
        -9.656073570251465
      ],
      [
        "н",
        -9.657127380371094
      ],
      [
        "·",
        -9.658276557922363
      ],
      [
        "▁ai",
        -9.659146308898926
      ],
      [
        "▁Con",
        -9.660557746887209
      ],
      [
        "▁Da",
        -9.661564826965332
      ],
      [
        "等",
        -9.661754608154297
      ],
      [
        "▁<",
        -9.661924362182615
      ],
      [
        ");",
        -9.66226577758789
      ],
      [
        "▁г",
        -9.663495063781738
      ],
      [
        "ina",
        -9.663716316223145
      ],
      [
        "▁Za",
        -9.663872718811035
      ],
      [
        "▁ci",
        -9.66392993927002
      ],
      [
        "pl",
        -9.664176940917969
      ],
      [
        "ах",
        -9.66472625732422
      ],
      [
        "▁θα",
        -9.665571212768556
      ],
      [
        "ного",
        -9.665935516357422
      ],
      [
        "▁수",
        -9.66799545288086
      ],
      [
        "ные",
        -9.668213844299316
      ],
      [
        "▁få",
        -9.6688871383667
      ],
      [
        "▁está",
        -9.669230461120604
      ],
      [
        "▁τον",
        -9.669726371765137
      ],
      [
        "ning",
        -9.66990852355957
      ],
      [
        "▁about",
        -9.670008659362791
      ],
      [
        "jo",
        -9.670186042785645
      ],
      [
        "▁time",
        -9.670489311218262
      ],
      [
        "uje",
        -9.671878814697266
      ],
      [
        "▁deze",
        -9.67198657989502
      ],
      [
        "▁Ja",
        -9.67295742034912
      ],
      [
        "▁quan",
        -9.673523902893066
      ],
      [
        "ty",
        -9.673794746398926
      ],
      [
        "ych",
        -9.67491626739502
      ],
      [
        "ей",
        -9.675060272216797
      ],
      [
        "ش",
        -9.676626205444336
      ],
      [
        "▁So",
        -9.678479194641112
      ],
      [
        "▁chính",
        -9.67873764038086
      ],
      [
        "és",
        -9.679162979125977
      ],
      [
        "▁đi",
        -9.680082321166992
      ],
      [
        "nek",
        -9.68127727508545
      ],
      [
        "▁data",
        -9.682299613952637
      ],
      [
        "▁dass",
        -9.68411922454834
      ],
      [
        "▁also",
        -9.685617446899414
      ],
      [
        "С",
        -9.685755729675291
      ],
      [
        "▁στην",
        -9.687572479248049
      ],
      [
        "▁jako",
        -9.690502166748049
      ],
      [
        "▁New",
        -9.690905570983888
      ],
      [
        "▁gia",
        -9.693731307983398
      ],
      [
        "과",
        -9.694819450378418
      ],
      [
        "▁votre",
        -9.695632934570312
      ],
      [
        "sk",
        -9.696395874023438
      ],
      [
        "前",
        -9.696490287780762
      ],
      [
        "▁شده",
        -9.696555137634276
      ],
      [
        "▁über",
        -9.698165893554688
      ],
      [
        "▁auto",
        -9.700888633728027
      ],
      [
        "ii",
        -9.701754570007324
      ],
      [
        "ți",
        -9.702024459838867
      ],
      [
        "▁под",
        -9.702882766723633
      ],
      [
        "▁ho",
        -9.70290756225586
      ],
      [
        "▁Den",
        -9.70302677154541
      ],
      [
        "lu",
        -9.703213691711426
      ],
      [
        "家",
        -9.70427131652832
      ],
      [
        "ок",
        -9.705025672912598
      ],
      [
        "▁wird",
        -9.706290245056152
      ],
      [
        "sz",
        -9.707839965820312
      ],
      [
        "▁if",
        -9.708067893981934
      ],
      [
        "▁hơn",
        -9.709088325500488
      ],
      [
        "nak",
        -9.71118450164795
      ],
      [
        "ла",
        -9.711620330810549
      ],
      [
        "leri",
        -9.713652610778809
      ],
      [
        "д",
        -9.71718692779541
      ],
      [
        "è",
        -9.71824073791504
      ],
      [
        "▁ها",
        -9.718350410461426
      ],
      [
        "▁это",
        -9.719096183776855
      ],
      [
        "▁It",
        -9.71958827972412
      ],
      [
        "▁ви",
        -9.719804763793944
      ],
      [
        "▁fel",
        -9.721482276916504
      ],
      [
        "▁j",
        -9.721820831298828
      ],
      [
        "▁Nam",
        -9.72209358215332
      ],
      [
        "▁our",
        -9.722387313842772
      ],
      [
        "▁via",
        -9.722761154174805
      ],
      [
        "ver",
        -9.725088119506836
      ],
      [
        "▁forma",
        -9.725895881652832
      ],
      [
        "▁bien",
        -9.726608276367188
      ],
      [
        "▁www",
        -9.727025032043455
      ],
      [
        "인",
        -9.7274169921875
      ],
      [
        "化",
        -9.729426383972168
      ],
      [
        "▁ob",
        -9.729535102844238
      ],
      [
        "▁tôi",
        -9.730301856994627
      ],
      [
        "▁%",
        -9.730565071105955
      ],
      [
        "▁все",
        -9.731449127197266
      ],
      [
        "ista",
        -9.731637001037598
      ],
      [
        "ем",
        -9.73187255859375
      ],
      [
        "▁nhân",
        -9.733034133911133
      ],
      [
        "▁Ne",
        -9.733983039855955
      ],
      [
        "▁tin",
        -9.73404598236084
      ],
      [
        "▁out",
        -9.73447036743164
      ],
      [
        "▁lui",
        -9.73505401611328
      ],
      [
        "ої",
        -9.735926628112791
      ],
      [
        "ный",
        -9.736008644104004
      ],
      [
        "して",
        -9.73606777191162
      ],
      [
        "ung",
        -9.741141319274902
      ],
      [
        "▁bi",
        -9.741360664367676
      ],
      [
        "▁cao",
        -9.741790771484377
      ],
      [
        "▁dating",
        -9.74203872680664
      ],
      [
        "다",
        -9.742670059204102
      ],
      [
        "▁være",
        -9.743644714355469
      ],
      [
        "▁ter",
        -9.744959831237791
      ],
      [
        "ся",
        -9.746411323547363
      ],
      [
        "▁kr",
        -9.746500968933104
      ],
      [
        "ene",
        -9.747556686401367
      ],
      [
        "▁định",
        -9.747662544250488
      ],
      [
        "回",
        -9.747793197631836
      ],
      [
        "نا",
        -9.749194145202637
      ],
      [
        "▁vy",
        -9.751753807067873
      ],
      [
        "▁einen",
        -9.753592491149902
      ],
      [
        "▁San",
        -9.754137992858888
      ],
      [
        "名",
        -9.754423141479492
      ],
      [
        "▁çok",
        -9.75461483001709
      ],
      [
        "▁تا",
        -9.75606632232666
      ],
      [
        "ada",
        -9.756658554077148
      ],
      [
        "»,",
        -9.757917404174805
      ],
      [
        "生",
        -9.759271621704102
      ],
      [
        "▁esta",
        -9.76023292541504
      ],
      [
        "에서",
        -9.761152267456056
      ],
      [
        "０",
        -9.76248264312744
      ],
      [
        "▁their",
        -9.762542724609377
      ],
      [
        "法",
        -9.762616157531738
      ],
      [
        "性",
        -9.763774871826172
      ],
      [
        "ové",
        -9.7639799118042
      ],
      [
        "▁ש",
        -9.763998985290527
      ],
      [
        "▁jo",
        -9.764906883239746
      ],
      [
        "▁heeft",
        -9.765387535095217
      ],
      [
        "▁This",
        -9.766530990600586
      ],
      [
        "ال",
        -9.767139434814451
      ],
      [
        "▁pri",
        -9.76758861541748
      ],
      [
        "▁без",
        -9.768024444580078
      ],
      [
        "▁dig",
        -9.770009994506836
      ],
      [
        "▁post",
        -9.77012538909912
      ],
      [
        "que",
        -9.77150821685791
      ],
      [
        "к",
        -9.771576881408691
      ],
      [
        "▁Das",
        -9.771754264831545
      ],
      [
        "▁Ma",
        -9.771879196166992
      ],
      [
        "mente",
        -9.772207260131836
      ],
      [
        "ssa",
        -9.773080825805664
      ],
      [
        "▁mình",
        -9.773966789245604
      ],
      [
        "小",
        -9.774014472961426
      ],
      [
        "品",
        -9.774222373962402
      ],
      [
        "▁nên",
        -9.775298118591309
      ],
      [
        "▁they",
        -9.775819778442385
      ],
      [
        "ın",
        -9.778033256530762
      ],
      [
        "▁τους",
        -9.778386116027832
      ],
      [
        "力",
        -9.781100273132324
      ],
      [
        "sen",
        -9.781763076782228
      ],
      [
        "▁kun",
        -9.782560348510742
      ],
      [
        "▁об",
        -9.784920692443848
      ],
      [
        "▁cách",
        -9.784947395324709
      ],
      [
        "ата",
        -9.787994384765623
      ],
      [
        "▁بال",
        -9.788538932800291
      ],
      [
        "▁On",
        -9.790545463562012
      ],
      [
        "▁לא",
        -9.79184627532959
      ],
      [
        "▁{",
        -9.792044639587402
      ],
      [
        "には",
        -9.792399406433104
      ],
      [
        "스",
        -9.793675422668455
      ],
      [
        "▁which",
        -9.794092178344728
      ],
      [
        "mo",
        -9.794123649597168
      ],
      [
        "者",
        -9.797307968139648
      ],
      [
        "外",
        -9.79971694946289
      ],
      [
        "▁पर",
        -9.79987907409668
      ],
      [
        "▁τη",
        -9.80296516418457
      ],
      [
        "ル",
        -9.803114891052246
      ],
      [
        "入",
        -9.803145408630373
      ],
      [
        "▁oraz",
        -9.80483627319336
      ],
      [
        "ts",
        -9.80498504638672
      ],
      [
        "ine",
        -9.805079460144045
      ],
      [
        "du",
        -9.805782318115234
      ],
      [
        "点",
        -9.808905601501465
      ],
      [
        "▁rất",
        -9.809674263000488
      ],
      [
        "▁thời",
        -9.809876441955566
      ],
      [
        "▁ani",
        -9.811030387878418
      ],
      [
        "▁nog",
        -9.814169883728027
      ],
      [
        "ez",
        -9.814611434936523
      ],
      [
        "г",
        -9.81472110748291
      ],
      [
        "▁dal",
        -9.815187454223633
      ],
      [
        "▁kommer",
        -9.81555461883545
      ],
      [
        "he",
        -9.815887451171877
      ],
      [
        "２",
        -9.81603717803955
      ],
      [
        "▁TV",
        -9.816801071166992
      ],
      [
        "▁còn",
        -9.816815376281738
      ],
      [
        "▁nebo",
        -9.816940307617188
      ],
      [
        "š",
        -9.81761646270752
      ],
      [
        "▁przez",
        -9.819600105285645
      ],
      [
        "▁nous",
        -9.819823265075684
      ],
      [
        "▁sinh",
        -9.82186508178711
      ],
      [
        "ні",
        -9.822362899780272
      ],
      [
        "п",
        -9.824064254760742
      ],
      [
        "▁zum",
        -9.82411003112793
      ],
      [
        "land",
        -9.824457168579102
      ],
      [
        "das",
        -9.82456874847412
      ],
      [
        "▁cùng",
        -9.824711799621582
      ],
      [
        "€",
        -9.825299263000488
      ],
      [
        "ной",
        -9.825675964355469
      ],
      [
        "ن",
        -9.82600212097168
      ],
      [
        "た",
        -9.826117515563965
      ],
      [
        "▁đồng",
        -9.826249122619627
      ],
      [
        "▁ще",
        -9.82659912109375
      ],
      [
        "시",
        -9.827113151550291
      ],
      [
        "▁olan",
        -9.82793426513672
      ],
      [
        "ών",
        -9.828042030334473
      ],
      [
        "org",
        -9.828302383422852
      ],
      [
        "▁thế",
        -9.828598022460938
      ],
      [
        "▁gli",
        -9.829873085021973
      ],
      [
        "合",
        -9.830398559570312
      ],
      [
        "山",
        -9.831429481506348
      ],
      [
        "▁As",
        -9.831550598144531
      ],
      [
        "部",
        -9.83181858062744
      ],
      [
        "▁?",
        -9.83240032196045
      ],
      [
        "▁mới",
        -9.83243179321289
      ],
      [
        "▁dag",
        -9.833769798278809
      ],
      [
        "▁си",
        -9.834293365478516
      ],
      [
        "▁Pe",
        -9.834322929382324
      ],
      [
        "ā",
        -9.835760116577148
      ],
      [
        "▁wat",
        -9.836647987365724
      ],
      [
        "kin",
        -9.838372230529783
      ],
      [
        "▁era",
        -9.83872413635254
      ],
      [
        "html",
        -9.840229034423828
      ],
      [
        "▁theo",
        -9.840848922729492
      ],
      [
        "▁hình",
        -9.840885162353516
      ],
      [
        "▁qua",
        -9.840998649597168
      ],
      [
        "ス",
        -9.841212272644045
      ],
      [
        "～",
        -9.84304428100586
      ],
      [
        "▁seu",
        -9.843610763549805
      ],
      [
        "方",
        -9.845067024230955
      ],
      [
        "国",
        -9.845504760742188
      ],
      [
        "ation",
        -9.846217155456545
      ],
      [
        "=\"",
        -9.846851348876951
      ],
      [
        "▁так",
        -9.847405433654783
      ],
      [
        "▁خود",
        -9.850820541381836
      ],
      [
        "▁я",
        -9.851118087768556
      ],
      [
        "▁Ha",
        -9.85184097290039
      ],
      [
        "▁kann",
        -9.852041244506836
      ],
      [
        "▁thông",
        -9.852107048034668
      ],
      [
        "▁go",
        -9.853001594543455
      ],
      [
        "▁mu",
        -9.85431957244873
      ],
      [
        "ш",
        -9.855493545532228
      ],
      [
        "▁Nu",
        -9.857484817504885
      ],
      [
        "nia",
        -9.857827186584473
      ],
      [
        "▁už",
        -9.860812187194824
      ],
      [
        "▁efter",
        -9.86083984375
      ],
      [
        "▁ten",
        -9.861507415771484
      ],
      [
        "ji",
        -9.862360000610352
      ],
      [
        "▁thực",
        -9.862417221069336
      ],
      [
        "pa",
        -9.863446235656738
      ],
      [
        "为",
        -9.865555763244627
      ],
      [
        "▁daha",
        -9.866188049316406
      ],
      [
        "▁हैं",
        -9.867152214050291
      ],
      [
        "ken",
        -9.868682861328123
      ],
      [
        "▁че",
        -9.869250297546388
      ],
      [
        "át",
        -9.869833946228027
      ],
      [
        "▁new",
        -9.870000839233398
      ],
      [
        "br",
        -9.870641708374023
      ],
      [
        "▁einer",
        -9.870665550231934
      ],
      [
        "多",
        -9.872247695922852
      ],
      [
        "▁får",
        -9.872364044189451
      ],
      [
        "▁trường",
        -9.87324333190918
      ],
      [
        "ן",
        -9.873388290405272
      ],
      [
        "▁Por",
        -9.875517845153809
      ],
      [
        "▁had",
        -9.875933647155762
      ],
      [
        "ку",
        -9.876544952392578
      ],
      [
        "この",
        -9.876556396484377
      ],
      [
        "▁điều",
        -9.877059936523438
      ],
      [
        "ción",
        -9.87709617614746
      ],
      [
        "▁wir",
        -9.87830638885498
      ],
      [
        "▁meer",
        -9.878558158874512
      ],
      [
        "µ",
        -9.882235527038574
      ],
      [
        "ile",
        -9.882315635681152
      ],
      [
        "▁like",
        -9.883047103881836
      ],
      [
        "و",
        -9.883095741271973
      ],
      [
        "cie",
        -9.88444995880127
      ],
      [
        "어",
        -9.887011528015137
      ],
      [
        "rea",
        -9.887598991394045
      ],
      [
        "▁just",
        -9.887794494628906
      ],
      [
        "▁ty",
        -9.888373374938965
      ],
      [
        "▁hier",
        -9.88927936553955
      ],
      [
        "▁Mar",
        -9.890054702758787
      ],
      [
        "▁may",
        -9.890345573425291
      ],
      [
        "▁ab",
        -9.891483306884766
      ],
      [
        "▁internet",
        -9.892486572265623
      ],
      [
        "ές",
        -9.892837524414062
      ],
      [
        "nu",
        -9.893056869506836
      ],
      [
        "き",
        -9.89486026763916
      ],
      [
        "ll",
        -9.89487361907959
      ],
      [
        "able",
        -9.894989967346191
      ],
      [
        "dos",
        -9.895597457885742
      ],
      [
        "成",
        -9.896110534667969
      ],
      [
        "▁هم",
        -9.89681911468506
      ],
      [
        "▁einem",
        -9.89712142944336
      ],
      [
        "▁PM",
        -9.897181510925291
      ],
      [
        "▁chi",
        -9.897584915161133
      ],
      [
        "定",
        -9.897734642028809
      ],
      [
        "▁Google",
        -9.898505210876465
      ],
      [
        "物",
        -9.899055480957031
      ],
      [
        "区",
        -9.899587631225586
      ],
      [
        ".”",
        -9.90019416809082
      ],
      [
        ",\"",
        -9.900330543518066
      ],
      [
        "vi",
        -9.905430793762209
      ],
      [
        "hu",
        -9.905685424804688
      ],
      [
        "▁sử",
        -9.908397674560549
      ],
      [
        "▁tem",
        -9.909475326538086
      ],
      [
        "▁aux",
        -9.909673690795898
      ],
      [
        "▁khách",
        -9.910673141479492
      ],
      [
        "▁US",
        -9.911373138427734
      ],
      [
        "ita",
        -9.91159725189209
      ],
      [
        "主",
        -9.913237571716309
      ],
      [
        "des",
        -9.913783073425291
      ],
      [
        "▁są",
        -9.913884162902832
      ],
      [
        "▁cơ",
        -9.914831161499023
      ],
      [
        "ł",
        -9.915175437927246
      ],
      [
        "でも",
        -9.915678024291992
      ],
      [
        "▁wordt",
        -9.91627597808838
      ],
      [
        "面",
        -9.916818618774414
      ],
      [
        "▁phẩm",
        -9.916885375976562
      ],
      [
        "▁Man",
        -9.91794776916504
      ],
      [
        "▁nur",
        -9.91973876953125
      ],
      [
        "les",
        -9.920418739318848
      ],
      [
        "▁ska",
        -9.92226505279541
      ],
      [
        "▁jsou",
        -9.92226791381836
      ],
      [
        "▁Η",
        -9.922459602355955
      ],
      [
        "ـ",
        -9.924510955810549
      ],
      [
        "▁zo",
        -9.92518711090088
      ],
      [
        "内",
        -9.925225257873535
      ],
      [
        "ně",
        -9.925713539123535
      ],
      [
        "▁Б",
        -9.92632293701172
      ],
      [
        "ent",
        -9.926496505737305
      ],
      [
        "zi",
        -9.927026748657228
      ],
      [
        "▁You",
        -9.927385330200195
      ],
      [
        "▁Việt",
        -9.929044723510742
      ],
      [
        "▁noch",
        -9.929354667663574
      ],
      [
        "án",
        -9.92947769165039
      ],
      [
        "▁هذا",
        -9.93045139312744
      ],
      [
        "▁tam",
        -9.930922508239746
      ],
      [
        "fi",
        -9.932024955749512
      ],
      [
        "ою",
        -9.93231201171875
      ],
      [
        "²",
        -9.932462692260742
      ],
      [
        "对",
        -9.933018684387209
      ],
      [
        "ная",
        -9.933890342712402
      ],
      [
        "▁wy",
        -9.934260368347168
      ],
      [
        "▁Porno",
        -9.934786796569824
      ],
      [
        "▁بعد",
        -9.934956550598145
      ],
      [
        "؟",
        -9.93540859222412
      ],
      [
        "▁је",
        -9.935543060302734
      ],
      [
        "▁cả",
        -9.935650825500488
      ],
      [
        "▁раз",
        -9.936257362365724
      ],
      [
        "nın",
        -9.937260627746582
      ],
      [
        "▁przy",
        -9.937993049621582
      ],
      [
        "der",
        -9.939157485961914
      ],
      [
        "▁cấp",
        -9.940503120422363
      ],
      [
        "으로",
        -9.940648078918455
      ],
      [
        "bo",
        -9.940850257873535
      ],
      [
        "▁tre",
        -9.94100570678711
      ],
      [
        "三",
        -9.94136905670166
      ],
      [
        "го",
        -9.942108154296877
      ],
      [
        "▁ti",
        -9.94293212890625
      ],
      [
        "▁solo",
        -9.943102836608888
      ],
      [
        "▁get",
        -9.943875312805176
      ],
      [
        "▁Q",
        -9.944121360778809
      ],
      [
        "▁pot",
        -9.944280624389648
      ],
      [
        "田",
        -9.94442081451416
      ],
      [
        "▁II",
        -9.944462776184082
      ],
      [
        "ut",
        -9.944562911987305
      ],
      [
        "▁Не",
        -9.944987297058104
      ],
      [
        "▁이",
        -9.94546890258789
      ],
      [
        "▁aby",
        -9.946227073669434
      ],
      [
        "▁iz",
        -9.94669246673584
      ],
      [
        "ry",
        -9.94699764251709
      ],
      [
        "ju",
        -9.94802951812744
      ],
      [
        "י",
        -9.948830604553224
      ],
      [
        "▁haben",
        -9.949166297912598
      ],
      [
        "その",
        -9.95118522644043
      ],
      [
        "▁đang",
        -9.952404975891112
      ],
      [
        "など",
        -9.95244598388672
      ],
      [
        "▁free",
        -9.95277976989746
      ],
      [
        "‌های",
        -9.95502758026123
      ],
      [
        "▁jsem",
        -9.956146240234377
      ],
      [
        "val",
        -9.956174850463867
      ],
      [
        "해",
        -9.95628833770752
      ],
      [
        "bar",
        -9.95642375946045
      ],
      [
        "▁δεν",
        -9.956504821777344
      ],
      [
        "▁Д",
        -9.956604957580566
      ],
      [
        "▁casa",
        -9.95915699005127
      ],
      [
        "という",
        -9.959749221801758
      ],
      [
        "nya",
        -9.959758758544922
      ],
      [
        "ate",
        -9.96001148223877
      ],
      [
        "学",
        -9.96022129058838
      ],
      [
        "▁chúng",
        -9.960527420043944
      ],
      [
        "▁foi",
        -9.9607572555542
      ],
      [
        "▁كسارة",
        -9.963172912597656
      ],
      [
        "▁Ce",
        -9.965619087219238
      ],
      [
        "ná",
        -9.966015815734863
      ],
      [
        "هم",
        -9.966747283935549
      ],
      [
        "数",
        -9.966952323913574
      ],
      [
        "▁tym",
        -9.96696949005127
      ],
      [
        "▁amb",
        -9.96697998046875
      ],
      [
        "▁plan",
        -9.967439651489258
      ],
      [
        "店",
        -9.967564582824709
      ],
      [
        "▁Windows",
        -9.96933364868164
      ],
      [
        "▁τις",
        -9.969508171081545
      ],
      [
        "▁hotel",
        -9.972905158996582
      ],
      [
        "tan",
        -9.973069190979004
      ],
      [
        "dir",
        -9.97353458404541
      ],
      [
        "▁Her",
        -9.973600387573242
      ],
      [
        "ों",
        -9.97370719909668
      ],
      [
        "▁!",
        -9.97370719909668
      ],
      [
        "ë",
        -9.973936080932615
      ],
      [
        "ých",
        -9.976078987121582
      ],
      [
        "▁máy",
        -9.976678848266602
      ],
      [
        "▁ने",
        -9.976694107055664
      ],
      [
        "▁top",
        -9.977087020874023
      ],
      [
        "▁lượng",
        -9.97743034362793
      ],
      [
        "度",
        -9.982070922851562
      ],
      [
        "▁super",
        -9.983482360839844
      ],
      [
        "▁pero",
        -9.98460292816162
      ],
      [
        "line",
        -9.98570156097412
      ],
      [
        "area",
        -9.986193656921388
      ],
      [
        "자",
        -9.986193656921388
      ],
      [
        "▁todo",
        -9.986327171325684
      ],
      [
        "up",
        -9.986488342285156
      ],
      [
        "▁الله",
        -9.986701011657717
      ],
      [
        "▁со",
        -9.987943649291992
      ],
      [
        "▁Dr",
        -9.988288879394531
      ],
      [
        "って",
        -9.988622665405272
      ],
      [
        "▁best",
        -9.989349365234377
      ],
      [
        "주",
        -9.989545822143556
      ],
      [
        "▁vụ",
        -9.98978042602539
      ],
      [
        "▁fa",
        -9.990076065063477
      ],
      [
        "tor",
        -9.9918212890625
      ],
      [
        "▁ud",
        -9.991857528686523
      ],
      [
        "▁οι",
        -9.992605209350586
      ],
      [
        "Ð",
        -9.994041442871094
      ],
      [
        "ata",
        -9.994318962097168
      ],
      [
        "▁kl",
        -9.99459171295166
      ],
      [
        "ç",
        -9.994592666625977
      ],
      [
        "▁întâlniri",
        -9.994741439819336
      ],
      [
        "▁lý",
        -9.995899200439451
      ],
      [
        "gi",
        -9.995973587036133
      ],
      [
        "▁ان",
        -9.99598789215088
      ],
      [
        "ska",
        -9.997116088867188
      ],
      [
        "ї",
        -9.997184753417969
      ],
      [
        "wa",
        -9.997243881225586
      ],
      [
        "ες",
        -9.9983549118042
      ],
      [
        "事",
        -9.999545097351074
      ],
      [
        "▁untuk",
        -10.00023078918457
      ],
      [
        "ym",
        -10.000460624694824
      ],
      [
        "▁năng",
        -10.000521659851074
      ],
      [
        "ere",
        -10.00054168701172
      ],
      [
        "ini",
        -10.001110076904297
      ],
      [
        "▁todos",
        -10.00122356414795
      ],
      [
        "р",
        -10.00167465209961
      ],
      [
        "▁cần",
        -10.002161026000977
      ],
      [
        "):",
        -10.002323150634766
      ],
      [
        "全",
        -10.002995491027832
      ],
      [
        "ر",
        -10.002999305725098
      ],
      [
        "▁lên",
        -10.00423526763916
      ],
      [
        "ा",
        -10.005199432373049
      ],
      [
        "▁upp",
        -10.005348205566406
      ],
      [
        "ton",
        -10.005728721618652
      ],
      [
        "▁aber",
        -10.005881309509276
      ],
      [
        "ет",
        -10.006046295166016
      ],
      [
        "到",
        -10.00627613067627
      ],
      [
        "▁bra",
        -10.007491111755373
      ],
      [
        "▁mot",
        -10.007694244384766
      ],
      [
        "▁his",
        -10.00779914855957
      ],
      [
        "ε",
        -10.008480072021484
      ],
      [
        "▁chất",
        -10.008590698242188
      ],
      [
        "着",
        -10.008907318115234
      ],
      [
        "▁viên",
        -10.009328842163086
      ],
      [
        "owe",
        -10.010740280151367
      ],
      [
        "های",
        -10.01136589050293
      ],
      [
        "▁most",
        -10.011725425720217
      ],
      [
        "▁Video",
        -10.012462615966797
      ],
      [
        "В",
        -10.013150215148926
      ],
      [
        "▁test",
        -10.013493537902832
      ],
      [
        "▁khác",
        -10.013949394226074
      ],
      [
        "▁як",
        -10.0142822265625
      ],
      [
        "▁Los",
        -10.01579475402832
      ],
      [
        "▁hebben",
        -10.016263008117676
      ],
      [
        "pe",
        -10.01840591430664
      ],
      [
        "▁trình",
        -10.019136428833008
      ],
      [
        "▁war",
        -10.019815444946287
      ],
      [
        "Г",
        -10.019926071166992
      ],
      [
        "▁ف",
        -10.02228546142578
      ],
      [
        "▁Op",
        -10.02231788635254
      ],
      [
        "▁đây",
        -10.023428916931152
      ],
      [
        "天",
        -10.024799346923828
      ],
      [
        "▁hành",
        -10.025245666503906
      ],
      [
        "▁هو",
        -10.025800704956056
      ],
      [
        "要",
        -10.02648639678955
      ],
      [
        "}",
        -10.026488304138184
      ],
      [
        "▁prin",
        -10.02700424194336
      ],
      [
        "▁hun",
        -10.027172088623049
      ],
      [
        "▁St",
        -10.02943992614746
      ],
      [
        "ol",
        -10.030259132385254
      ],
      [
        "▁roku",
        -10.030765533447266
      ],
      [
        "▁Su",
        -10.030766487121582
      ],
      [
        "ť",
        -10.030858039855955
      ],
      [
        "ят",
        -10.03121566772461
      ],
      [
        "▁Α",
        -10.031842231750488
      ],
      [
        "ия",
        -10.033836364746094
      ],
      [
        "▁Mi",
        -10.034062385559082
      ],
      [
        "▁mis",
        -10.034160614013672
      ],
      [
        "men",
        -10.034321784973145
      ],
      [
        "色",
        -10.034693717956545
      ],
      [
        "Ä",
        -10.035387992858888
      ],
      [
        "사",
        -10.036643028259276
      ],
      [
        "』",
        -10.036739349365234
      ],
      [
        "▁Et",
        -10.03750228881836
      ],
      [
        "▁ba",
        -10.03869342803955
      ],
      [
        "lle",
        -10.03887176513672
      ],
      [
        "▁hem",
        -10.039420127868652
      ],
      [
        "▁nào",
        -10.039451599121094
      ],
      [
        "수",
        -10.040254592895508
      ],
      [
        "所",
        -10.041491508483888
      ],
      [
        "▁eu",
        -10.042278289794922
      ],
      [
        "▁ang",
        -10.04330825805664
      ],
      [
        "▁nhưng",
        -10.043432235717772
      ],
      [
        "▁vai",
        -10.044622421264648
      ],
      [
        "▁độ",
        -10.044744491577148
      ],
      [
        "▁biết",
        -10.044928550720217
      ],
      [
        "▁nad",
        -10.04659652709961
      ],
      [
        "º",
        -10.048565864562988
      ],
      [
        "ι",
        -10.05218505859375
      ],
      [
        "▁sub",
        -10.052287101745604
      ],
      [
        "ando",
        -10.053251266479492
      ],
      [
        "▁سنگ",
        -10.053536415100098
      ],
      [
        "▁nói",
        -10.053841590881348
      ],
      [
        "lı",
        -10.054054260253906
      ],
      [
        "▁При",
        -10.054073333740234
      ],
      [
        "▁lub",
        -10.05408763885498
      ],
      [
        "▁casino",
        -10.054261207580566
      ],
      [
        "▁při",
        -10.054397583007812
      ],
      [
        "▁Ε",
        -10.054966926574709
      ],
      [
        "型",
        -10.05539608001709
      ],
      [
        "min",
        -10.055524826049805
      ],
      [
        "ný",
        -10.055832862854004
      ],
      [
        "▁other",
        -10.056594848632812
      ],
      [
        "▁roz",
        -10.057568550109863
      ],
      [
        "▁trước",
        -10.059192657470703
      ],
      [
        "▁во",
        -10.059433937072754
      ],
      [
        "▁एक",
        -10.059679985046388
      ],
      [
        "▁All",
        -10.060442924499512
      ],
      [
        "▁nhận",
        -10.060941696166992
      ],
      [
        "न",
        -10.062176704406738
      ],
      [
        "ée",
        -10.06247615814209
      ],
      [
        "ων",
        -10.063459396362305
      ],
      [
        "▁game",
        -10.06398105621338
      ],
      [
        "▁ed",
        -10.064874649047852
      ],
      [
        "▁Me",
        -10.066055297851562
      ],
      [
        "▁können",
        -10.06861972808838
      ],
      [
        "jpg",
        -10.069869041442873
      ],
      [
        "▁phát",
        -10.07030200958252
      ],
      [
        "ア",
        -10.071025848388672
      ],
      [
        "ый",
        -10.07115364074707
      ],
      [
        "▁ont",
        -10.071603775024414
      ],
      [
        "▁bis",
        -10.071815490722656
      ],
      [
        "▁videos",
        -10.072101593017578
      ],
      [
        "ens",
        -10.072517395019531
      ],
      [
        "▁vagy",
        -10.072614669799805
      ],
      [
        "▁cum",
        -10.073735237121582
      ],
      [
        "র",
        -10.074390411376951
      ],
      [
        "▁ex",
        -10.075685501098633
      ],
      [
        "성",
        -10.076473236083984
      ],
      [
        "▁Facebook",
        -10.07835292816162
      ],
      [
        "▁Top",
        -10.078557014465332
      ],
      [
        "▁Cu",
        -10.078614234924316
      ],
      [
        "son",
        -10.079697608947754
      ],
      [
        "▁hai",
        -10.079900741577148
      ],
      [
        "として",
        -10.079926490783691
      ],
      [
        "https",
        -10.080034255981444
      ],
      [
        "▁että",
        -10.080330848693848
      ],
      [
        "体",
        -10.08088207244873
      ],
      [
        "▁tout",
        -10.082602500915527
      ],
      [
        "▁face",
        -10.084712982177734
      ],
      [
        "▁xuất",
        -10.0847749710083
      ],
      [
        "▁anh",
        -10.08484935760498
      ],
      [
        "▁By",
        -10.085589408874512
      ],
      [
        "와",
        -10.085793495178224
      ],
      [
        "み",
        -10.086291313171388
      ],
      [
        "ã",
        -10.08643627166748
      ],
      [
        "文",
        -10.086782455444336
      ],
      [
        "▁program",
        -10.08774471282959
      ],
      [
        "▁یا",
        -10.088738441467283
      ],
      [
        "po",
        -10.088811874389648
      ],
      [
        "▁سال",
        -10.089838981628418
      ],
      [
        "che",
        -10.090739250183104
      ],
      [
        "sel",
        -10.09160041809082
      ],
      [
        "カ",
        -10.091733932495115
      ],
      [
        "▁você",
        -10.092308044433594
      ],
      [
        "▁gibi",
        -10.093697547912598
      ],
      [
        "▁Π",
        -10.093836784362791
      ],
      [
        "��",
        -10.093931198120115
      ],
      [
        "ist",
        -10.0961275100708
      ],
      [
        "▁been",
        -10.096466064453123
      ],
      [
        "▁”",
        -10.09654426574707
      ],
      [
        "▁Г",
        -10.09757137298584
      ],
      [
        "ic",
        -10.09770679473877
      ],
      [
        "▁điểm",
        -10.097764015197754
      ],
      [
        "su",
        -10.09781551361084
      ],
      [
        "▁tempo",
        -10.098694801330566
      ],
      [
        "▁Ο",
        -10.098981857299805
      ],
      [
        "대",
        -10.099209785461426
      ],
      [
        "▁Om",
        -10.09994125366211
      ],
      [
        "▁Р",
        -10.100006103515623
      ],
      [
        "▁कि",
        -10.100167274475098
      ],
      [
        "gen",
        -10.100838661193848
      ],
      [
        "期",
        -10.100954055786133
      ],
      [
        "▁any",
        -10.101091384887695
      ],
      [
        "▁service",
        -10.102018356323242
      ],
      [
        "▁gian",
        -10.102216720581056
      ],
      [
        "来",
        -10.102355003356934
      ],
      [
        "▁tiền",
        -10.102519035339355
      ],
      [
        "▁:)",
        -10.102672576904297
      ],
      [
        "▁tiếp",
        -10.102903366088867
      ],
      [
        "▁Am",
        -10.102935791015623
      ],
      [
        "ner",
        -10.10325527191162
      ],
      [
        "▁mặt",
        -10.103387832641602
      ],
      [
        "ل",
        -10.103827476501465
      ],
      [
        "ク",
        -10.105853080749512
      ],
      [
        "▁nghiệp",
        -10.106842041015623
      ],
      [
        "▁questo",
        -10.108139038085938
      ],
      [
        "▁bộ",
        -10.1095552444458
      ],
      [
        "http",
        -10.109689712524414
      ],
      [
        "lla",
        -10.10980987548828
      ],
      [
        "▁who",
        -10.110363006591797
      ],
      [
        "ale",
        -10.110541343688965
      ],
      [
        "▁toàn",
        -10.111077308654783
      ],
      [
        "▁xe",
        -10.112282752990724
      ],
      [
        "道",
        -10.112407684326172
      ],
      [
        "立",
        -10.113015174865724
      ],
      [
        "▁My",
        -10.113482475280762
      ],
      [
        "▁tư",
        -10.11392879486084
      ],
      [
        "so",
        -10.114055633544922
      ],
      [
        "▁Ta",
        -10.115400314331056
      ],
      [
        "▁czy",
        -10.116700172424316
      ],
      [
        "原",
        -10.117444038391112
      ],
      [
        "▁cada",
        -10.118457794189451
      ],
      [
        "マ",
        -10.119104385375977
      ],
      [
        "▁kết",
        -10.119163513183594
      ],
      [
        "▁He",
        -10.11941623687744
      ],
      [
        "▁when",
        -10.120001792907717
      ],
      [
        "▁foto",
        -10.120560646057127
      ],
      [
        "ais",
        -10.120668411254885
      ],
      [
        "時",
        -10.121187210083008
      ],
      [
        "▁grande",
        -10.1212739944458
      ],
      [
        "▁social",
        -10.122050285339355
      ],
      [
        "▁его",
        -10.122191429138184
      ],
      [
        "▁euro",
        -10.122479438781738
      ],
      [
        "▁car",
        -10.122939109802246
      ],
      [
        "▁nas",
        -10.123300552368164
      ],
      [
        "ν",
        -10.123868942260742
      ],
      [
        "▁او",
        -10.125944137573242
      ],
      [
        "▁thiết",
        -10.126084327697754
      ],
      [
        "▁sul",
        -10.126449584960938
      ],
      [
        "つ",
        -10.12728786468506
      ],
      [
        "ו",
        -10.127904891967772
      ],
      [
        "▁Mai",
        -10.127928733825684
      ],
      [
        "同",
        -10.128032684326172
      ],
      [
        "ую",
        -10.128470420837402
      ],
      [
        "ト",
        -10.128512382507324
      ],
      [
        "▁dengan",
        -10.128701210021973
      ],
      [
        "▁Т",
        -10.129297256469728
      ],
      [
        "!!",
        -10.130088806152344
      ],
      [
        "var",
        -10.130495071411133
      ],
      [
        "▁це",
        -10.130952835083008
      ],
      [
        "정",
        -10.132269859313965
      ],
      [
        "明",
        -10.132664680480955
      ],
      [
        "▁there",
        -10.132698059082031
      ],
      [
        "ที่",
        -10.132735252380373
      ],
      [
        "▁Internet",
        -10.133435249328612
      ],
      [
        "ού",
        -10.134475708007812
      ],
      [
        "感",
        -10.134810447692873
      ],
      [
        "age",
        -10.135564804077148
      ],
      [
        "▁Te",
        -10.13739776611328
      ],
      [
        "▁З",
        -10.137821197509766
      ],
      [
        "▁gì",
        -10.138047218322754
      ],
      [
        "vo",
        -10.13860321044922
      ],
      [
        "ל",
        -10.138952255249023
      ],
      [
        "cu",
        -10.139280319213867
      ],
      [
        "▁durch",
        -10.139411926269531
      ],
      [
        "▁design",
        -10.139436721801758
      ],
      [
        "▁andere",
        -10.13948917388916
      ],
      [
        "cia",
        -10.139969825744627
      ],
      [
        "▁کرد",
        -10.140244483947754
      ],
      [
        "sti",
        -10.140650749206545
      ],
      [
        "▁které",
        -10.140786170959473
      ],
      [
        "क",
        -10.141064643859863
      ],
      [
        "▁tốt",
        -10.14172077178955
      ],
      [
        "▁же",
        -10.14216136932373
      ],
      [
        "▁пере",
        -10.143065452575684
      ],
      [
        "▁Kč",
        -10.143073081970217
      ],
      [
        "▁شد",
        -10.143099784851074
      ],
      [
        "Р",
        -10.144095420837402
      ],
      [
        "▁what",
        -10.145346641540527
      ],
      [
        "▁شود",
        -10.14631462097168
      ],
      [
        "▁ben",
        -10.14636516571045
      ],
      [
        "▁hvor",
        -10.146985054016112
      ],
      [
        "▁denne",
        -10.14725112915039
      ],
      [
        "▁cầu",
        -10.14754581451416
      ],
      [
        "월",
        -10.147692680358888
      ],
      [
        "ًا",
        -10.148521423339844
      ],
      [
        "▁má",
        -10.150123596191406
      ],
      [
        "▁zur",
        -10.150192260742188
      ],
      [
        "▁cette",
        -10.150272369384766
      ],
      [
        "ם",
        -10.150776863098145
      ],
      [
        "▁ای",
        -10.153688430786133
      ],
      [
        "コ",
        -10.153814315795898
      ],
      [
        "elle",
        -10.153863906860352
      ],
      [
        "▁loại",
        -10.155365943908691
      ],
      [
        "▁Em",
        -10.155975341796877
      ],
      [
        "先",
        -10.156376838684082
      ],
      [
        "公",
        -10.156700134277344
      ],
      [
        "次",
        -10.157234191894531
      ],
      [
        "▁li",
        -10.157994270324709
      ],
      [
        "万",
        -10.158028602600098
      ],
      [
        "▁dia",
        -10.159677505493164
      ],
      [
        "per",
        -10.160058975219728
      ],
      [
        "▁dịch",
        -10.160074234008787
      ],
      [
        "´",
        -10.161611557006836
      ],
      [
        "▁use",
        -10.161648750305176
      ],
      [
        "▁oli",
        -10.161993980407717
      ],
      [
        "bet",
        -10.16334342956543
      ],
      [
        "▁pm",
        -10.163917541503906
      ],
      [
        "ê",
        -10.164472579956056
      ],
      [
        "▁ότι",
        -10.164535522460938
      ],
      [
        "▁dette",
        -10.16477394104004
      ],
      [
        "▁prima",
        -10.166411399841309
      ],
      [
        "▁vara",
        -10.16685390472412
      ],
      [
        "我",
        -10.166979789733888
      ],
      [
        "▁bảo",
        -10.167369842529297
      ],
      [
        "ž",
        -10.168532371520996
      ],
      [
        "▁kas",
        -10.168741226196287
      ],
      [
        "▁AM",
        -10.168970108032228
      ],
      [
        "산",
        -10.1699800491333
      ],
      [
        "하는",
        -10.17143726348877
      ],
      [
        "▁ny",
        -10.171472549438477
      ],
      [
        "▁pelo",
        -10.171518325805664
      ],
      [
        "▁pela",
        -10.171703338623049
      ],
      [
        "ò",
        -10.171727180480955
      ],
      [
        "て",
        -10.17201805114746
      ],
      [
        "▁¿",
        -10.173165321350098
      ],
      [
        "▁É",
        -10.173195838928224
      ],
      [
        "ana",
        -10.173254013061523
      ],
      [
        "ła",
        -10.173494338989258
      ],
      [
        "년",
        -10.173712730407717
      ],
      [
        "▁Nie",
        -10.174674987792969
      ],
      [
        "台",
        -10.175719261169434
      ],
      [
        "▁desde",
        -10.17641544342041
      ],
      [
        "▁هذه",
        -10.176769256591797
      ],
      [
        "É",
        -10.177330017089844
      ],
      [
        "▁लिए",
        -10.17768096923828
      ],
      [
        "ने",
        -10.17771339416504
      ],
      [
        "▁bằng",
        -10.178203582763672
      ],
      [
        "ου",
        -10.178421974182127
      ],
      [
        "▁м",
        -10.17854118347168
      ],
      [
        "重",
        -10.178553581237791
      ],
      [
        "tas",
        -10.179287910461426
      ],
      [
        "▁کی",
        -10.179611206054688
      ],
      [
        "▁vị",
        -10.179697036743164
      ],
      [
        "▁anti",
        -10.17994499206543
      ],
      [
        "س",
        -10.180170059204102
      ],
      [
        "▁mehr",
        -10.180580139160156
      ],
      [
        "▁може",
        -10.180868148803713
      ],
      [
        "▁tâm",
        -10.181612014770508
      ],
      [
        "▁vì",
        -10.18208122253418
      ],
      [
        "▁În",
        -10.182342529296877
      ],
      [
        "件",
        -10.183016777038574
      ],
      [
        "▁were",
        -10.183998107910156
      ],
      [
        "リ",
        -10.184159278869627
      ],
      [
        "口",
        -10.184310913085938
      ],
      [
        "het",
        -10.184619903564451
      ],
      [
        "▁کے",
        -10.184635162353516
      ],
      [
        "▁đối",
        -10.184782028198242
      ],
      [
        "zu",
        -10.185368537902832
      ],
      [
        "▁tự",
        -10.185702323913574
      ],
      [
        "位",
        -10.186883926391602
      ],
      [
        "▁caso",
        -10.187823295593262
      ],
      [
        "与",
        -10.18830394744873
      ],
      [
        "▁كل",
        -10.188360214233398
      ],
      [
        "器",
        -10.188425064086914
      ],
      [
        "▁→",
        -10.188688278198242
      ],
      [
        "К",
        -10.188775062561035
      ],
      [
        "▁Ge",
        -10.189197540283203
      ],
      [
        "lt",
        -10.189661979675291
      ],
      [
        "ει",
        -10.190134048461914
      ],
      [
        "▁quả",
        -10.19033908843994
      ],
      [
        "▁thấy",
        -10.190600395202637
      ],
      [
        "ová",
        -10.191344261169434
      ],
      [
        "▁hiệu",
        -10.192691802978516
      ],
      [
        "キ",
        -10.19371509552002
      ],
      [
        "▁kunnen",
        -10.193814277648926
      ],
      [
        "▁vida",
        -10.194125175476074
      ],
      [
        "ende",
        -10.194729804992676
      ],
      [
        "장",
        -10.195149421691896
      ],
      [
        "▁Jan",
        -10.195834159851074
      ],
      [
        "▁nella",
        -10.19587230682373
      ],
      [
        "▁sempre",
        -10.195879936218262
      ],
      [
        "▁And",
        -10.196292877197266
      ],
      [
        "▁Art",
        -10.196558952331545
      ],
      [
        "б",
        -10.19656753540039
      ],
      [
        "▁cel",
        -10.196887016296388
      ],
      [
        "▁Auto",
        -10.197659492492676
      ],
      [
        "라",
        -10.198067665100098
      ],
      [
        "う",
        -10.1984281539917
      ],
      [
        "》",
        -10.198497772216797
      ],
      [
        "▁nay",
        -10.198532104492188
      ],
      [
        "▁muy",
        -10.199477195739746
      ],
      [
        "ante",
        -10.1997709274292
      ],
      [
        "In",
        -10.20003604888916
      ],
      [
        "▁blir",
        -10.200250625610352
      ],
      [
        "î",
        -10.200983047485352
      ],
      [
        "서",
        -10.201066970825195
      ],
      [
        "▁make",
        -10.201165199279783
      ],
      [
        "▁iš",
        -10.201335906982422
      ],
      [
        "南",
        -10.20192050933838
      ],
      [
        "▁dân",
        -10.202197074890137
      ],
      [
        "원",
        -10.2033109664917
      ],
      [
        "長",
        -10.20346450805664
      ],
      [
        "र",
        -10.20410442352295
      ],
      [
        "ому",
        -10.204243659973145
      ],
      [
        "第",
        -10.204401969909668
      ],
      [
        "▁andre",
        -10.20485496520996
      ],
      [
        "▁mange",
        -10.204896926879885
      ],
      [
        "可",
        -10.205443382263184
      ],
      [
        "▁här",
        -10.205766677856444
      ],
      [
        "아",
        -10.20592212677002
      ],
      [
        "and",
        -10.206097602844238
      ],
      [
        "ご",
        -10.207094192504885
      ],
      [
        "▁tạo",
        -10.207345962524414
      ],
      [
        "さ",
        -10.207998275756836
      ],
      [
        "します",
        -10.208667755126951
      ],
      [
        "▁tế",
        -10.208784103393556
      ],
      [
        "▁gay",
        -10.208903312683104
      ],
      [
        "▁uw",
        -10.209053993225098
      ],
      [
        "▁wel",
        -10.209151268005373
      ],
      [
        "▁Post",
        -10.209349632263184
      ],
      [
        "▁giúp",
        -10.21058177947998
      ],
      [
        "▁some",
        -10.210869789123535
      ],
      [
        "▁phòng",
        -10.211173057556152
      ],
      [
        "西",
        -10.21166706085205
      ],
      [
        "▁når",
        -10.21192455291748
      ],
      [
        "▁uno",
        -10.212368965148926
      ],
      [
        "nes",
        -10.212522506713867
      ],
      [
        "▁tính",
        -10.213483810424805
      ],
      [
        "▁//",
        -10.213629722595217
      ],
      [
        "▁são",
        -10.214211463928224
      ],
      [
        "tel",
        -10.214213371276855
      ],
      [
        "まで",
        -10.214372634887695
      ],
      [
        "~",
        -10.214487075805664
      ],
      [
        "付",
        -10.21662139892578
      ],
      [
        "트",
        -10.21662712097168
      ],
      [
        "▁kad",
        -10.217240333557127
      ],
      [
        "▁tác",
        -10.217578887939451
      ],
      [
        "▁News",
        -10.217609405517578
      ],
      [
        "ন",
        -10.21820068359375
      ],
      [
        "▁comme",
        -10.219526290893556
      ],
      [
        "for",
        -10.21957015991211
      ],
      [
        "▁than",
        -10.219610214233398
      ],
      [
        "代",
        -10.21969223022461
      ],
      [
        "ва",
        -10.220415115356444
      ],
      [
        "▁kinh",
        -10.22056007385254
      ],
      [
        "zione",
        -10.22058391571045
      ],
      [
        "ний",
        -10.221713066101074
      ],
      [
        "ion",
        -10.222418785095217
      ],
      [
        "好",
        -10.222503662109377
      ],
      [
        "▁vez",
        -10.222712516784668
      ],
      [
        "▁ses",
        -10.223094940185549
      ],
      [
        "▁Sa",
        -10.223376274108888
      ],
      [
        "▁essere",
        -10.223597526550291
      ],
      [
        "®",
        -10.223710060119627
      ],
      [
        "▁alt",
        -10.22421169281006
      ],
      [
        "ж",
        -10.224507331848145
      ],
      [
        "通",
        -10.225404739379885
      ],
      [
        "▁já",
        -10.22567653656006
      ],
      [
        "ら",
        -10.226804733276367
      ],
      [
        "▁contra",
        -10.227956771850586
      ],
      [
        "▁voi",
        -10.228294372558594
      ],
      [
        "正",
        -10.228307723999023
      ],
      [
        "bu",
        -10.228382110595703
      ],
      [
        "ő",
        -10.228835105895996
      ],
      [
        "▁zł",
        -10.228992462158203
      ],
      [
        "▁Ein",
        -10.23018741607666
      ],
      [
        "ger",
        -10.230609893798828
      ],
      [
        "▁trang",
        -10.230889320373535
      ],
      [
        "да",
        -10.231350898742676
      ],
      [
        "▁helt",
        -10.232465744018556
      ],
      [
        "量",
        -10.232730865478516
      ],
      [
        "▁الذي",
        -10.232882499694824
      ],
      [
        "▁hos",
        -10.23294162750244
      ],
      [
        "川",
        -10.233610153198242
      ],
      [
        "The",
        -10.23409366607666
      ],
      [
        "ロ",
        -10.234392166137695
      ],
      [
        "▁poate",
        -10.234898567199709
      ],
      [
        "▁Σ",
        -10.235005378723145
      ],
      [
        "号",
        -10.235050201416016
      ],
      [
        "心",
        -10.23552131652832
      ],
      [
        "ons",
        -10.235570907592772
      ],
      [
        "▁pode",
        -10.235570907592772
      ],
      [
        "▁Web",
        -10.235750198364258
      ],
      [
        "▁into",
        -10.236480712890623
      ],
      [
        "▁Com",
        -10.23704719543457
      ],
      [
        "▁mare",
        -10.23728847503662
      ],
      [
        "!!!",
        -10.238039016723633
      ],
      [
        "uk",
        -10.238460540771484
      ],
      [
        "ム",
        -10.239848136901855
      ],
      [
        "за",
        -10.239910125732422
      ],
      [
        "▁「",
        -10.2410888671875
      ],
      [
        "▁Black",
        -10.241535186767578
      ],
      [
        "▁information",
        -10.241724014282228
      ],
      [
        "ых",
        -10.242531776428224
      ],
      [
        "▁Lo",
        -10.243654251098633
      ],
      [
        "▁blog",
        -10.243707656860352
      ],
      [
        "А",
        -10.244222640991213
      ],
      [
        "▁Đ",
        -10.244414329528809
      ],
      [
        "▁në",
        -10.244502067565918
      ],
      [
        "▁mod",
        -10.244709968566896
      ],
      [
        "ल",
        -10.244836807250977
      ],
      [
        "▁}",
        -10.245896339416504
      ],
      [
        "▁į",
        -10.24662971496582
      ],
      [
        "ks",
        -10.24665355682373
      ],
      [
        "▁भी",
        -10.247422218322754
      ],
      [
        "▁els",
        -10.248062133789062
      ],
      [
        "▁можно",
        -10.248210906982422
      ],
      [
        "fa",
        -10.248542785644531
      ],
      [
        "era",
        -10.248652458190918
      ],
      [
        "▁phần",
        -10.248788833618164
      ],
      [
        "La",
        -10.249455451965332
      ],
      [
        "▁chủ",
        -10.250107765197754
      ],
      [
        "▁website",
        -10.250109672546388
      ],
      [
        "ske",
        -10.251398086547852
      ],
      [
        "▁Sport",
        -10.251442909240724
      ],
      [
        "▁bản",
        -10.251461029052734
      ],
      [
        "ам",
        -10.252662658691406
      ],
      [
        "▁etc",
        -10.252830505371094
      ],
      [
        "▁base",
        -10.25289535522461
      ],
      [
        "ét",
        -10.253532409667969
      ],
      [
        "▁seg",
        -10.253684997558594
      ],
      [
        "ato",
        -10.255420684814451
      ],
      [
        "▁bude",
        -10.256123542785645
      ],
      [
        "▁Jeg",
        -10.256351470947266
      ],
      [
        "▁bar",
        -10.256548881530762
      ],
      [
        "▁art",
        -10.25698184967041
      ],
      [
        "机",
        -10.257244110107422
      ],
      [
        "▁đường",
        -10.257801055908203
      ],
      [
        "▁tình",
        -10.25794506072998
      ],
      [
        "▁Med",
        -10.257956504821776
      ],
      [
        "ب",
        -10.258180618286133
      ],
      [
        "書",
        -10.258344650268556
      ],
      [
        "å",
        -10.258405685424805
      ],
      [
        "美",
        -10.258599281311035
      ],
      [
        "▁tal",
        -10.258626937866213
      ],
      [
        "▁kadar",
        -10.259169578552246
      ],
      [
        "них",
        -10.259940147399902
      ],
      [
        "ac",
        -10.26025676727295
      ],
      [
        "▁kell",
        -10.26030158996582
      ],
      [
        "nda",
        -10.261078834533691
      ],
      [
        "▁आ",
        -10.261396408081056
      ],
      [
        "one",
        -10.26194190979004
      ],
      [
        "lig",
        -10.262465476989746
      ],
      [
        "▁veel",
        -10.262845993041992
      ],
      [
        "町",
        -10.263427734375
      ],
      [
        "３",
        -10.264078140258787
      ],
      [
        "▁us",
        -10.264729499816896
      ],
      [
        "▁faire",
        -10.265016555786133
      ],
      [
        "▁شما",
        -10.265844345092772
      ],
      [
        "ab",
        -10.266487121582031
      ],
      [
        "▁Os",
        -10.267023086547852
      ],
      [
        "▁vid",
        -10.267043113708496
      ],
      [
        "وا",
        -10.267580032348633
      ],
      [
        "부",
        -10.267820358276367
      ],
      [
        "▁کار",
        -10.268669128417969
      ],
      [
        "▁hoặc",
        -10.269030570983888
      ],
      [
        "▁Free",
        -10.269814491271973
      ],
      [
        "す",
        -10.269974708557127
      ],
      [
        "bi",
        -10.27065372467041
      ],
      [
        "Д",
        -10.270943641662598
      ],
      [
        "▁part",
        -10.271127700805664
      ],
      [
        "动",
        -10.271546363830566
      ],
      [
        ".\"",
        -10.27165412902832
      ],
      [
        "ilor",
        -10.271854400634766
      ],
      [
        "▁uz",
        -10.27226448059082
      ],
      [
        "▁its",
        -10.272348403930664
      ],
      [
        "▁он",
        -10.27394676208496
      ],
      [
        "ω",
        -10.275108337402344
      ],
      [
        "sin",
        -10.275501251220703
      ],
      [
        "▁Я",
        -10.275521278381348
      ],
      [
        "▁let",
        -10.275545120239258
      ],
      [
        "▁Κ",
        -10.275794982910156
      ],
      [
        "▁đề",
        -10.275985717773438
      ],
      [
        "▁điện",
        -10.276165008544922
      ],
      [
        "▁Δ",
        -10.276185989379885
      ],
      [
        "元",
        -10.276243209838867
      ],
      [
        "▁Euro",
        -10.277347564697266
      ],
      [
        "▁would",
        -10.277538299560549
      ],
      [
        "▁ăn",
        -10.277626991271973
      ],
      [
        "▁first",
        -10.278043746948242
      ],
      [
        "상",
        -10.278226852416992
      ],
      [
        "当",
        -10.278275489807127
      ],
      [
        "ի",
        -10.27882957458496
      ],
      [
        "nte",
        -10.280034065246582
      ],
      [
        "▁Pa",
        -10.280058860778809
      ],
      [
        "ão",
        -10.280181884765623
      ],
      [
        "▁fait",
        -10.280255317687988
      ],
      [
        "▁Foto",
        -10.280468940734863
      ],
      [
        "▁№",
        -10.281498908996582
      ],
      [
        "利",
        -10.281607627868652
      ],
      [
        "▁selv",
        -10.281731605529783
      ],
      [
        "▁place",
        -10.281813621520996
      ],
      [
        "网",
        -10.282231330871582
      ],
      [
        "▁tego",
        -10.282562255859377
      ],
      [
        "ster",
        -10.283589363098145
      ],
      [
        "ns",
        -10.283731460571287
      ],
      [
        "▁när",
        -10.284607887268066
      ],
      [
        "▁hội",
        -10.285216331481934
      ],
      [
        "ade",
        -10.285233497619627
      ],
      [
        "▁sein",
        -10.286481857299805
      ],
      [
        "得",
        -10.28656005859375
      ],
      [
        "ého",
        -10.286563873291016
      ],
      [
        "▁﻿",
        -10.287083625793455
      ],
      [
        "作",
        -10.287123680114746
      ],
      [
        "▁them",
        -10.287383079528809
      ],
      [
        "▁Este",
        -10.28752613067627
      ],
      [
        "都",
        -10.287702560424805
      ],
      [
        "▁bài",
        -10.287717819213867
      ],
      [
        "▁quando",
        -10.287802696228027
      ],
      [
        "就",
        -10.288273811340332
      ],
      [
        "ہ",
        -10.288556098937988
      ],
      [
        "駅",
        -10.2886323928833
      ],
      [
        "中国",
        -10.289210319519045
      ],
      [
        "▁bán",
        -10.289663314819336
      ],
      [
        "目",
        -10.28985595703125
      ],
      [
        "nl",
        -10.29030990600586
      ],
      [
        "▁nr",
        -10.290329933166504
      ],
      [
        "▁ju",
        -10.290661811828612
      ],
      [
        "ій",
        -10.290786743164062
      ],
      [
        "▁ini",
        -10.291349411010742
      ],
      [
        "set",
        -10.29209327697754
      ],
      [
        "³",
        -10.29269027709961
      ],
      [
        "▁które",
        -10.292991638183594
      ],
      [
        "op",
        -10.29306411743164
      ],
      [
        "▁استفاده",
        -10.295418739318848
      ],
      [
        "▁전",
        -10.296740531921388
      ],
      [
        "М",
        -10.296895027160645
      ],
      [
        "km",
        -10.297128677368164
      ],
      [
        "▁Jag",
        -10.297155380249023
      ],
      [
        "光",
        -10.297285079956056
      ],
      [
        "▁Har",
        -10.297471046447754
      ],
      [
        "▁ایران",
        -10.297869682312012
      ],
      [
        "▁कर",
        -10.2985258102417
      ],
      [
        "▁durante",
        -10.299787521362305
      ],
      [
        "后",
        -10.300271034240724
      ],
      [
        "ih",
        -10.30060863494873
      ],
      [
        "▁Super",
        -10.300867080688477
      ],
      [
        "▁Posted",
        -10.301249504089355
      ],
      [
        "▁set",
        -10.30189037322998
      ],
      [
        "发",
        -10.302324295043944
      ],
      [
        "▁finns",
        -10.302464485168455
      ],
      [
        "ラ",
        -10.30268096923828
      ],
      [
        "؛",
        -10.30307388305664
      ],
      [
        "드",
        -10.303190231323242
      ],
      [
        "▁também",
        -10.30360984802246
      ],
      [
        "▁mig",
        -10.303874969482422
      ],
      [
        "▁nam",
        -10.30423641204834
      ],
      [
        "▁ber",
        -10.30487060546875
      ],
      [
        "タ",
        -10.305228233337402
      ],
      [
        "▁Tu",
        -10.305421829223633
      ],
      [
        "▁how",
        -10.307538032531738
      ],
      [
        "▁mang",
        -10.30808162689209
      ],
      [
        "▁jaar",
        -10.309942245483398
      ],
      [
        "ズ",
        -10.309972763061523
      ],
      [
        "▁LED",
        -10.310219764709473
      ],
      [
        "▁giải",
        -10.310704231262209
      ],
      [
        "con",
        -10.31084156036377
      ],
      [
        "▁chọn",
        -10.313512802124023
      ],
      [
        "han",
        -10.314131736755373
      ],
      [
        "▁aj",
        -10.314926147460938
      ],
      [
        "より",
        -10.316251754760742
      ],
      [
        "▁cui",
        -10.31771469116211
      ],
      [
        "tar",
        -10.317804336547852
      ],
      [
        "น",
        -10.318509101867676
      ],
      [
        "▁thường",
        -10.318552017211914
      ],
      [
        "海",
        -10.31894874572754
      ],
      [
        "ía",
        -10.319144248962402
      ],
      [
        "▁fin",
        -10.319833755493164
      ],
      [
        "▁geen",
        -10.319921493530272
      ],
      [
        "nd",
        -10.321786880493164
      ],
      [
        "▁Go",
        -10.322274208068848
      ],
      [
        "▁PC",
        -10.322632789611816
      ],
      [
        "県",
        -10.32311725616455
      ],
      [
        "є",
        -10.324028968811035
      ],
      [
        "mar",
        -10.32456398010254
      ],
      [
        "▁people",
        -10.325984954833984
      ],
      [
        "▁ga",
        -10.32603645324707
      ],
      [
        "hi",
        -10.32620334625244
      ],
      [
        "▁باشد",
        -10.326374053955078
      ],
      [
        "동",
        -10.32638168334961
      ],
      [
        "能",
        -10.326457023620604
      ],
      [
        "ね",
        -10.326790809631348
      ],
      [
        "▁dùng",
        -10.327199935913086
      ],
      [
        "▁Mit",
        -10.327550888061523
      ],
      [
        "▁At",
        -10.327926635742188
      ],
      [
        "▁מה",
        -10.32981014251709
      ],
      [
        "▁very",
        -10.33005714416504
      ],
      [
        "mail",
        -10.330974578857422
      ],
[...]
